{
  "version": "1.0",
  "truncation": null,
  "padding": null,
  "added_tokens": [
    {
      "id": 0,
      "content": "<pad>",
      "single_word": false,
      "lstrip": false,
      "rstrip": false,
      "normalized": false,
      "special": true
    },
    {
      "id": 1,
      "content": "<unk>",
      "single_word": false,
      "lstrip": false,
      "rstrip": false,
      "normalized": false,
      "special": true
    },
    {
      "id": 2,
      "content": "<s>",
      "single_word": false,
      "lstrip": false,
      "rstrip": false,
      "normalized": false,
      "special": true
    },
    {
      "id": 3,
      "content": "</s>",
      "single_word": false,
      "lstrip": false,
      "rstrip": false,
      "normalized": false,
      "special": true
    }
  ],
  "normalizer": {
    "type": "Sequence",
    "normalizers": [
      {
        "type": "NFKC"
      }
    ]
  },
  "pre_tokenizer": {
    "type": "ByteLevel",
    "add_prefix_space": true,
    "trim_offsets": true,
    "use_regex": true
  },
  "post_processor": null,
  "decoder": {
    "type": "ByteLevel",
    "add_prefix_space": true,
    "trim_offsets": true,
    "use_regex": true
  },
  "model": {
    "type": "BPE",
    "dropout": null,
    "unk_token": null,
    "continuing_subword_prefix": null,
    "end_of_word_suffix": null,
    "fuse_unk": false,
    "byte_fallback": false,
    "ignore_merges": false,
    "vocab": {
      "<pad>": 0,
      "<unk>": 1,
      "<s>": 2,
      "</s>": 3,
      "!": 4,
      "\"": 5,
      "#": 6,
      "$": 7,
      "%": 8,
      "&": 9,
      "'": 10,
      "(": 11,
      ")": 12,
      "*": 13,
      "+": 14,
      ",": 15,
      "-": 16,
      ".": 17,
      "/": 18,
      "0": 19,
      "1": 20,
      "2": 21,
      "3": 22,
      "4": 23,
      "5": 24,
      "6": 25,
      "7": 26,
      "8": 27,
      "9": 28,
      ":": 29,
      ";": 30,
      "<": 31,
      "=": 32,
      ">": 33,
      "?": 34,
      "@": 35,
      "A": 36,
      "B": 37,
      "C": 38,
      "D": 39,
      "E": 40,
      "F": 41,
      "G": 42,
      "H": 43,
      "I": 44,
      "J": 45,
      "K": 46,
      "L": 47,
      "M": 48,
      "N": 49,
      "O": 50,
      "P": 51,
      "Q": 52,
      "R": 53,
      "S": 54,
      "T": 55,
      "U": 56,
      "V": 57,
      "W": 58,
      "X": 59,
      "Y": 60,
      "Z": 61,
      "[": 62,
      "\\": 63,
      "]": 64,
      "^": 65,
      "_": 66,
      "`": 67,
      "a": 68,
      "b": 69,
      "c": 70,
      "d": 71,
      "e": 72,
      "f": 73,
      "g": 74,
      "h": 75,
      "i": 76,
      "j": 77,
      "k": 78,
      "l": 79,
      "m": 80,
      "n": 81,
      "o": 82,
      "p": 83,
      "q": 84,
      "r": 85,
      "s": 86,
      "t": 87,
      "u": 88,
      "v": 89,
      "w": 90,
      "x": 91,
      "y": 92,
      "z": 93,
      "{": 94,
      "|": 95,
      "}": 96,
      "~": 97,
      "¡": 98,
      "¢": 99,
      "£": 100,
      "¤": 101,
      "¥": 102,
      "¦": 103,
      "§": 104,
      "¨": 105,
      "©": 106,
      "ª": 107,
      "«": 108,
      "¬": 109,
      "®": 110,
      "¯": 111,
      "°": 112,
      "±": 113,
      "²": 114,
      "³": 115,
      "´": 116,
      "µ": 117,
      "¶": 118,
      "·": 119,
      "¸": 120,
      "¹": 121,
      "º": 122,
      "»": 123,
      "¼": 124,
      "½": 125,
      "¾": 126,
      "¿": 127,
      "Â": 128,
      "Ã": 129,
      "Ä": 130,
      "Å": 131,
      "Æ": 132,
      "Ç": 133,
      "È": 134,
      "É": 135,
      "Ê": 136,
      "Ë": 137,
      "Ì": 138,
      "Í": 139,
      "Î": 140,
      "Ï": 141,
      "Ð": 142,
      "Ñ": 143,
      "Ò": 144,
      "Ó": 145,
      "Ô": 146,
      "Õ": 147,
      "Ö": 148,
      "×": 149,
      "Ø": 150,
      "Ù": 151,
      "Ú": 152,
      "Û": 153,
      "Ü": 154,
      "Ý": 155,
      "Þ": 156,
      "ß": 157,
      "à": 158,
      "á": 159,
      "â": 160,
      "ã": 161,
      "ä": 162,
      "å": 163,
      "æ": 164,
      "ç": 165,
      "è": 166,
      "é": 167,
      "ê": 168,
      "ë": 169,
      "ì": 170,
      "í": 171,
      "î": 172,
      "ï": 173,
      "ð": 174,
      "ñ": 175,
      "ó": 176,
      "ô": 177,
      "ĉ": 178,
      "Ċ": 179,
      "Č": 180,
      "Ġ": 181,
      "Ģ": 182,
      "ģ": 183,
      "Ĥ": 184,
      "ĥ": 185,
      "Ħ": 186,
      "ħ": 187,
      "Ĩ": 188,
      "ĩ": 189,
      "Ī": 190,
      "ī": 191,
      "Ĭ": 192,
      "ĭ": 193,
      "Į": 194,
      "į": 195,
      "İ": 196,
      "ı": 197,
      "Ĳ": 198,
      "ĳ": 199,
      "Ĵ": 200,
      "ĵ": 201,
      "Ķ": 202,
      "ķ": 203,
      "ĸ": 204,
      "Ĺ": 205,
      "ĺ": 206,
      "Ļ": 207,
      "ļ": 208,
      "Ľ": 209,
      "ľ": 210,
      "Ŀ": 211,
      "ŀ": 212,
      "Ł": 213,
      "ł": 214,
      "Ń": 215,
      "Ġt": 216,
      "Ġa": 217,
      "in": 218,
      "he": 219,
      "re": 220,
      "on": 221,
      "er": 222,
      "Ġthe": 223,
      "Ġs": 224,
      "at": 225,
      "Ġo": 226,
      "en": 227,
      "Ġw": 228,
      "ĠĠ": 229,
      "Ġc": 230,
      "or": 231,
      "it": 232,
      "an": 233,
      "es": 234,
      "is": 235,
      "Ġf": 236,
      "Ġp": 237,
      "ing": 238,
      "al": 239,
      "Ġan": 240,
      "Ġb": 241,
      "ed": 242,
      "ou": 243,
      "ar": 244,
      "Ġof": 245,
      "Ġin": 246,
      "Ġm": 247,
      "Ġto": 248,
      "Ġand": 249,
      "Ġd": 250,
      "ic": 251,
      "ion": 252,
      "le": 253,
      "as": 254,
      "om": 255,
      "Ġh": 256,
      "Ġth": 257,
      "ent": 258,
      "il": 259,
      "ĠT": 260,
      "st": 261,
      "ro": 262,
      "el": 263,
      "Ġl": 264,
      "Ġre": 265,
      "ct": 266,
      "ĠS": 267,
      "Ġn": 268,
      "ĠĠĠĠ": 269,
      "et": 270,
      "ĠI": 271,
      "ĠA": 272,
      "Ġe": 273,
      "ĠC": 274,
      "Ġg": 275,
      "ve": 276,
      "id": 277,
      "ut": 278,
      "ot": 279,
      "ol": 280,
      "Ġis": 281,
      "am": 282,
      "im": 283,
      "ur": 284,
      "Ġfor": 285,
      "ig": 286,
      "Ġon": 287,
      "ly": 288,
      "ac": 289,
      "ad": 290,
      "Ġbe": 291,
      "ĠM": 292,
      "ow": 293,
      "ay": 294,
      "Ġy": 295,
      "ation": 296,
      "us": 297,
      "ver": 298,
      "un": 299,
      "ĠP": 300,
      "Ġthat": 301,
      "ĠB": 302,
      "Ġst": 303,
      "ith": 304,
      "ir": 305,
      "ce": 306,
      "ch": 307,
      "ĠThe": 308,
      "Ġyou": 309,
      "Ġwith": 310,
      "ĠW": 311,
      "ul": 312,
      "Ġ(": 313,
      "Ġhe": 314,
      "ĠH": 315,
      "se": 316,
      "Ġit": 317,
      "ĠD": 318,
      "Ġ1": 319,
      "ter": 320,
      "'s": 321,
      "Ġas": 322,
      "ĠF": 323,
      "Ġ2": 324,
      "if": 325,
      "Ġal": 326,
      "ĠR": 327,
      "ag": 328,
      "Ġwh": 329,
      "em": 330,
      "Ġcon": 331,
      "ill": 332,
      "ers": 333,
      "Ġpro": 334,
      "od": 335,
      "ra": 336,
      "ĠL": 337,
      "ri": 338,
      "Ġwe": 339,
      "ĠN": 340,
      "est": 341,
      "ab": 342,
      "ist": 343,
      "ĠE": 344,
      "pp": 345,
      "ate": 346,
      "um": 347,
      "her": 348,
      "Ġ\"": 349,
      "and": 350,
      "Ġv": 351,
      "ess": 352,
      "th": 353,
      "Ġcom": 354,
      "Ġare": 355,
      "ĠG": 356,
      "Ġat": 357,
      "Ġde": 358,
      "ke": 359,
      "ore": 360,
      "op": 361,
      "qu": 362,
      "ld": 363,
      "ew": 364,
      "Ġwas": 365,
      "rom": 366,
      "Ġor": 367,
      "oun": 368,
      "ity": 369,
      "res": 370,
      "Ġex": 371,
      "igh": 372,
      "os": 373,
      "ĠĊ": 374,
      "Ġha": 375,
      "ect": 376,
      "oc": 377,
      "ĠO": 378,
      "ort": 379,
      "ment": 380,
      "Ġr": 381,
      "ant": 382,
      "Ġse": 383,
      "Ġby": 384,
      "ĠĠĠ": 385,
      "art": 386,
      "ain": 387,
      "ĠJ": 388,
      "ies": 389,
      "iv": 390,
      "Ġsu": 391,
      "Ġ20": 392,
      "ĠĠĠĠĠĠĠĠ": 393,
      "Ġfrom": 394,
      "end": 395,
      "ive": 396,
      "Ġthis": 397,
      "ust": 398,
      "ĠIn": 399,
      "Ġnot": 400,
      "Ġhave": 401,
      "Ġsh": 402,
      "ight": 403,
      "ud": 404,
      "Ġch": 405,
      "..": 406,
      "all": 407,
      "our": 408,
      "ard": 409,
      "red": 410,
      "Ġun": 411,
      "ren": 412,
      "Ġle": 413,
      "ial": 414,
      "Ġus": 415,
      "pt": 416,
      "ĠU": 417,
      "ear": 418,
      "out": 419,
      "ould": 420,
      "ell": 421,
      "ost": 422,
      "Ġcan": 423,
      "up": 424,
      "ge": 425,
      "og": 426,
      "Ġwor": 427,
      "ure": 428,
      "ome": 429,
      "pe": 430,
      "Ġab": 431,
      "ine": 432,
      "ack": 433,
      "00": 434,
      "ast": 435,
      "gh": 436,
      "ok": 437,
      "Ġpl": 438,
      "ak": 439,
      "Ġwill": 440,
      "te": 441,
      "ich": 442,
      "pl": 443,
      "Ġj": 444,
      "per": 445,
      "âĢ": 446,
      "ff": 447,
      "ide": 448,
      "Ġhas": 449,
      "Ġ\\": 450,
      "Ġk": 451,
      "ions": 452,
      "Ġall": 453,
      "ĠTh": 454,
      "Ġ$": 455,
      "ĠK": 456,
      "ber": 457,
      "age": 458,
      "Ġtr": 459,
      "Ġwhe": 460,
      "Ġyour": 461,
      "ice": 462,
      "Ġne": 463,
      "ally": 464,
      "ia": 465,
      "Ġdo": 466,
      "ame": 467,
      "ough": 468,
      "der": 469,
      "ated": 470,
      "ans": 471,
      "ue": 472,
      "Ġcl": 473,
      "ie": 474,
      "iz": 475,
      "Ġen": 476,
      "Ġgo": 477,
      "ther": 478,
      "ong": 479,
      "Ġad": 480,
      "ip": 481,
      "Ġbut": 482,
      "ound": 483,
      "ub": 484,
      "ass": 485,
      "Ġcomp": 486,
      "able": 487,
      "Ġim": 488,
      "ĠSt": 489,
      "Ġme": 490,
      "cc": 491,
      "act": 492,
      "ind": 493,
      "ous": 494,
      "ĠÐ": 495,
      "Ġhis": 496,
      "orm": 497,
      "ary": 498,
      "ult": 499,
      "ap": 500,
      "Ġar": 501,
      "Ġtheir": 502,
      "ĠV": 503,
      "cl": 504,
      "Ġout": 505,
      "Ġ201": 506,
      "ime": 507,
      "ook": 508,
      "one": 509,
      "Ġthey": 510,
      "'t": 511,
      "Ġup": 512,
      "Ġcont": 513,
      "ĠY": 514,
      "ite": 515,
      "ace": 516,
      "Ġmore": 517,
      "Ġres": 518,
      "ance": 519,
      "Ġwhich": 520,
      "ib": 521,
      "ry": 522,
      "av": 523,
      "Ġone": 524,
      "ake": 525,
      "ign": 526,
      "ep": 527,
      "ations": 528,
      "ire": 529,
      "Ġso": 530,
      "ical": 531,
      "so": 532,
      "very": 533,
      "Ġint": 534,
      "ĠCh": 535,
      "ĠAn": 536,
      "Ġwho": 537,
      "ction": 538,
      "are": 539,
      "du": 540,
      "Ġ3": 541,
      "ase": 542,
      "ĠâĢ": 543,
      "ach": 544,
      "Ġman": 545,
      "Ġapp": 546,
      "ence": 547,
      "ail": 548,
      "Ġabout": 549,
      "Ġ-": 550,
      "Ġsp": 551,
      "ents": 552,
      "ĠIt": 553,
      "ile": 554,
      "Ġper": 555,
      "ks": 556,
      "Ġqu": 557,
      "ru": 558,
      "Ġ=": 559,
      "Ġsa": 560,
      "Ġli": 561,
      "vel": 562,
      "Ġ19": 563,
      "Ð¾": 564,
      "ord": 565,
      "Ġte": 566,
      "form": 567,
      "ount": 568,
      "Ġdis": 569,
      "Ġnew": 570,
      "Ġour": 571,
      "ĠĠĠĠĠĠĠ": 572,
      "ition": 573,
      "port": 574,
      "ress": 575,
      "Ġyear": 576,
      "ll": 577,
      "erv": 578,
      "int": 579,
      "Ġother": 580,
      "Ġmy": 581,
      "ens": 582,
      "Ġwere": 583,
      "Ġpart": 584,
      "own": 585,
      "Ġev": 586,
      "reat": 587,
      "ose": 588,
      "Ġoff": 589,
      "ays": 590,
      "Ġhad": 591,
      "lic": 592,
      "Ġalso": 593,
      "ely": 594,
      "con": 595,
      "Ġher": 596,
      "ory": 597,
      "Ð°": 598,
      "Ġag": 599,
      "ang": 600,
      "ĠHe": 601,
      "Ġbeen": 602,
      "ree": 603,
      "Ġwork": 604,
      "Ġif": 605,
      "ors": 606,
      "ark": 607,
      "ob": 608,
      "ov": 609,
      "vers": 610,
      "Ġsc": 611,
      "ings": 612,
      "rent": 613,
      "Ġtime": 614,
      "Ġ'": 615,
      "ph": 616,
      "mer": 617,
      "ove": 618,
      "ath": 619,
      "ild": 620,
      ").": 621,
      "Ġthere": 622,
      "Ġits": 623,
      "Ġany": 624,
      "fe": 625,
      "Ġwould": 626,
      "Ġpe": 627,
      "ian": 628,
      "ĠWe": 629,
      "Ġover": 630,
      "xt": 631,
      "ish": 632,
      "Ġkn": 633,
      "Ġthem": 634,
      "com": 635,
      "ĠThis": 636,
      "Ġro": 637,
      "Ġsome": 638,
      "Ġwhen": 639,
      "ĠRe": 640,
      "irst": 641,
      "ick": 642,
      ".\"": 643,
      "Ġget": 644,
      "urn": 645,
      "Ðµ": 646,
      "Ġpre": 647,
      "Ġthan": 648,
      "Ġgr": 649,
      "Ġlike": 650,
      "gr": 651,
      ");": 652,
      "use": 653,
      "ne": 654,
      "Ġ4": 655,
      "Ð¸": 656,
      "Ġwhat": 657,
      "oll": 658,
      "ĠUn": 659,
      "wo": 660,
      "Ġacc": 661,
      "fter": 662,
      "ople": 663,
      "ft": 664,
      "oy": 665,
      "wn": 666,
      "Ġinto": 667,
      "ces": 668,
      "),": 669,
      "20": 670,
      "Ġdes": 671,
      "Ġ&": 672,
      "ink": 673,
      "ject": 674,
      "rit": 675,
      "Ġ<": 676,
      "Ġrec": 677,
      "ates": 678,
      "ĉĉ": 679,
      "--": 680,
      "Ġam": 681,
      "ade": 682,
      "ric": 683,
      "Ġno": 684,
      "clud": 685,
      "Ġcomm": 686,
      "//": 687,
      "Ġ5": 688,
      "Ġ{": 689,
      "Ġshe": 690,
      "ĠâĢĵ": 691,
      "Ġsaid": 692,
      "ual": 693,
      "Ġjust": 694,
      "rough": 695,
      "ater": 696,
      "old": 697,
      "tern": 698,
      "ck": 699,
      "hed": 700,
      "we": 701,
      "iew": 702,
      "ĠWh": 703,
      "Ġfirst": 704,
      "Ġpeople": 705,
      "Ġfe": 706,
      "Ġbec": 707,
      "Ġhow": 708,
      "ious": 709,
      "lect": 710,
      "ons": 711,
      "amp": 712,
      "ood": 713,
      "...": 714,
      "ĠAs": 715,
      "Ġind": 716,
      "ool": 717,
      "Ð½": 718,
      "iss": 719,
      "Ġneed": 720,
      "pec": 721,
      "get": 722,
      "Ġact": 723,
      "ational": 724,
      "day": 725,
      "Ġbet": 726,
      "eth": 727,
      "aw": 728,
      "ning": 729,
      "ert": 730,
      "ÑĢ": 731,
      "Ġonly": 732,
      "ĠSe": 733,
      "Ġprov": 734,
      "Ġunder": 735,
      "hen": 736,
      "tt": 737,
      "Ġbl": 738,
      "ific": 739,
      "ities": 740,
      "Ġcons": 741,
      "Ġtwo": 742,
      "Ġadd": 743,
      "ĠCom": 744,
      "ÑĤ": 745,
      ",\"": 746,
      "elf": 747,
      "ause": 748,
      "Ġinclud": 749,
      "ĠDe": 750,
      "Ġem": 751,
      "ont": 752,
      "li": 753,
      "Ġpr": 754,
      "olog": 755,
      "Ġ0": 756,
      "Ġmost": 757,
      "Ġmay": 758,
      "erm": 759,
      "les": 760,
      "ise": 761,
      "Ġ}": 762,
      "pect": 763,
      "ful": 764,
      "row": 765,
      "yst": 766,
      "ced": 767,
      "ock": 768,
      "Ġthrough": 769,
      "ata": 770,
      "rib": 771,
      "Ñģ": 772,
      "ating": 773,
      "Ġreg": 774,
      "Ġ*": 775,
      "Ġknow": 776,
      "=\"": 777,
      "Ġfun": 778,
      "Ġafter": 779,
      "oint": 780,
      "ĠĠĠĠĠĠĠĠĠĠĠ": 781,
      "Ġatt": 782,
      "Ġco": 783,
      "itt": 784,
      "Ġinv": 785,
      "cre": 786,
      "ublic": 787,
      "Ġdif": 788,
      "Ġback": 789,
      "ring": 790,
      "ident": 791,
      "Ġwhere": 792,
      "Ġimp": 793,
      "Ġfl": 794,
      "Ġstud": 795,
      "ics": 796,
      "Ġthese": 797,
      "Ġuse": 798,
      "Ġass": 799,
      "ps": 800,
      "Ġcould": 801,
      "Ġbu": 802,
      "ĠPro": 803,
      "Ġsupp": 804,
      "oth": 805,
      "Ġyears": 806,
      "ĠNew": 807,
      "als": 808,
      "fore": 809,
      "Ð¾Ð": 810,
      "ond": 811,
      "ener": 812,
      "Ġwell": 813,
      "ife": 814,
      "Ġsee": 815,
      "Ġ6": 816,
      "Ġph": 817,
      "ments": 818,
      "Ġrel": 819,
      "cess": 820,
      "ĠAnd": 821,
      "ward": 822,
      "ys": 823,
      "Ġmake": 824,
      "Ġprodu": 825,
      "ased": 826,
      "io": 827,
      "Ġhel": 828,
      "Ã©": 829,
      "Ġlook": 830,
      "ict": 831,
      "Ġevery": 832,
      "ork": 833,
      "Ġ200": 834,
      "Ġserv": 835,
      "Ġcol": 836,
      "ange": 837,
      "Ġhim": 838,
      "Ġpos": 839,
      "ily": 840,
      "ystem": 841,
      "Ġset": 842,
      "ular": 843,
      "ĠEn": 844,
      "ility": 845,
      "ĠAr": 846,
      "Ġwant": 847,
      "Ġret": 848,
      "uch": 849,
      "any": 850,
      "arch": 851,
      "Ġrem": 852,
      "ĠYou": 853,
      "Ġplay": 854,
      "ĠAl": 855,
      "ty": 856,
      "ible": 857,
      "ts": 858,
      "bs": 859,
      "ract": 860,
      "Ġthen": 861,
      "ited": 862,
      "uring": 863,
      "Ġfin": 864,
      "ull": 865,
      "ative": 866,
      "Ġent": 867,
      "anc": 868,
      "hip": 869,
      "Ġpol": 870,
      "ement": 871,
      "Ġmany": 872,
      "ied": 873,
      "Ġsuch": 874,
      "ures": 875,
      "{\\": 876,
      "velop": 877,
      "erson": 878,
      "Ġac": 879,
      "ower": 880,
      "Ġvery": 881,
      "be": 882,
      "Ġway": 883,
      "Ġnow": 884,
      "Ġ[": 885,
      "ĠFor": 886,
      "Ġtra": 887,
      "ĠIf": 888,
      "Ġmod": 889,
      "Ġ10": 890,
      "gin": 891,
      "au": 892,
      "ivers": 893,
      "Ġeven": 894,
      "riv": 895,
      "Ġshould": 896,
      "Ġpres": 897,
      "Ġdid": 898,
      "iness": 899,
      "ss": 900,
      "ices": 901,
      "Ġ7": 902,
      "ient": 903,
      "aking": 904,
      "ax": 905,
      "its": 906,
      "ience": 907,
      "Ġhelp": 908,
      "19": 909,
      "gan": 910,
      "Ġke": 911,
      "ting": 912,
      "Ġexper": 913,
      "iel": 914,
      "alth": 915,
      "ues": 916,
      "de": 917,
      "ble": 918,
      "Ġright": 919,
      "Ġinst": 920,
      "Ġend": 921,
      "ars": 922,
      "Ġtrans": 923,
      "land": 924,
      "Ġclass": 925,
      "Ġeff": 926,
      "oup": 927,
      "Ġsm": 928,
      "Ġshow": 929,
      "ix": 930,
      "Ġbecause": 931,
      "air": 932,
      "cept": 933,
      "hes": 934,
      "Ġagain": 935,
      "Ġown": 936,
      "ution": 937,
      "other": 938,
      "ĠBut": 939,
      "ĠLe": 940,
      "ash": 941,
      "Ġspec": 942,
      "chool": 943,
      "Ġdiffe": 944,
      "ĠSh": 945,
      "Ġ8": 946,
      "Ġdef": 947,
      "Ġgood": 948,
      "az": 949,
      "Ġinter": 950,
      "pr": 951,
      "Ġdown": 952,
      "Ġstart": 953,
      "Ġsub": 954,
      "Ġloc": 955,
      "ale": 956,
      "ollow": 957,
      "ank": 958,
      "irect": 959,
      "Ġrequ": 960,
      "usiness": 961,
      "ah": 962,
      "Ġnum": 963,
      "Ġbeing": 964,
      "Ġlong": 965,
      "Ġgu": 966,
      "ode": 967,
      "Ġworld": 968,
      "Ġhigh": 969,
      "formation": 970,
      "Ġval": 971,
      "Ġsur": 972,
      "ug": 973,
      "Ġdec": 974,
      "Ġcall": 975,
      "ven": 976,
      "Ġmuch": 977,
      "Ġ.": 978,
      "ĠBe": 979,
      "Ġgreat": 980,
      "Ġdon": 981,
      "ween": 982,
      "enc": 983,
      "ner": 984,
      "Ġins": 985,
      "Ġform": 986,
      "Ġfam": 987,
      "Ġmon": 988,
      "Ġthose": 989,
      "rest": 990,
      "ince": 991,
      "ten": 992,
      "Ġmade": 993,
      "ex": 994,
      "Ġbel": 995,
      "Ġ9": 996,
      "Ġdoes": 997,
      "Ġthink": 998,
      "ds": 999,
      "'re": 1000,
      "Ġart": 1001,
      "ason": 1002,
      "Ġdevelop": 1003,
      "ize": 1004,
      "ton": 1005,
      "10": 1006,
      "meric": 1007,
      "view": 1008,
      "Ġbefore": 1009,
      "Ġmin": 1010,
      "Ġmem": 1011,
      "Ġcount": 1012,
      "gram": 1013,
      "Ġread": 1014,
      "ives": 1015,
      "ek": 1016,
      "ĠHow": 1017,
      "Ġsystem": 1018,
      "Ġdet": 1019,
      "ĠQ": 1020,
      "Ġfind": 1021,
      "Ġop": 1022,
      "Ġimport": 1023,
      "imes": 1024,
      "Ġchar": 1025,
      "led": 1026,
      "man": 1027,
      "Ġsim": 1028,
      "Ġbetween": 1029,
      "Ġpublic": 1030,
      "ĠĠĠĠĠĠĠĠĠĠĠĠĠĠĠĠ": 1031,
      "Ġexp": 1032,
      "atch": 1033,
      "Ġused": 1034,
      "ĠOn": 1035,
      "chn": 1036,
      "line": 1037,
      "Ġmed": 1038,
      "Ġhere": 1039,
      "**": 1040,
      "Ġcur": 1041,
      "uth": 1042,
      "Ġlead": 1043,
      "ines": 1044,
      "ĠTr": 1045,
      "Ð»": 1046,
      "ism": 1047,
      "iet": 1048,
      "ather": 1049,
      "way": 1050,
      "ouse": 1051,
      "Ġvar": 1052,
      "ave": 1053,
      "Ġext": 1054,
      "ages": 1055,
      "000": 1056,
      "let": 1057,
      "Ġob": 1058,
      "uc": 1059,
      "Ġcar": 1060,
      "vern": 1061,
      "Ġfollow": 1062,
      "ene": 1063,
      "Ġsom": 1064,
      "Ġinte": 1065,
      "alk": 1066,
      "Ġtake": 1067,
      "Ġser": 1068,
      "Ġbr": 1069,
      "Ġcre": 1070,
      "Ġperson": 1071,
      "read": 1072,
      "ĠAd": 1073,
      "Ġed": 1074,
      "ins": 1075,
      "ĠThere": 1076,
      "ĠAmeric": 1077,
      "Ġsign": 1078,
      "Ġlast": 1079,
      "Ġra": 1080,
      "oh": 1081,
      "ets": 1082,
      "ually": 1083,
      "Ġav": 1084,
      "Ġear": 1085,
      "Ġday": 1086,
      "ger": 1087,
      "els": 1088,
      "ĠCl": 1089,
      "uss": 1090,
      "Ġwhile": 1091,
      "ology": 1092,
      "ists": 1093,
      "ern": 1094,
      "Ġdisc": 1095,
      "Ġeach": 1096,
      "Ġrep": 1097,
      "Ġbest": 1098,
      "Ġlife": 1099,
      "ever": 1100,
      "Ġcommun": 1101,
      "Ġsupport": 1102,
      "</": 1103,
      "Ġ|": 1104,
      "Ġche": 1105,
      "arm": 1106,
      "Ġcor": 1107,
      "ĠSc": 1108,
      "Ġel": 1109,
      "Ġi": 1110,
      "Ġhand": 1111,
      "The": 1112,
      "ute": 1113,
      "Ġla": 1114,
      "vent": 1115,
      "Ġvis": 1116,
      "ames": 1117,
      "Ġstr": 1118,
      "the": 1119,
      "Ġcour": 1120,
      "_{": 1121,
      "Ġdata": 1122,
      "Ġfil": 1123,
      "Ġsame": 1124,
      "Ġdifferent": 1125,
      "ĠShe": 1126,
      "ters": 1127,
      "Ġ18": 1128,
      "Ġpoint": 1129,
      "ital": 1130,
      "Ġgener": 1131,
      "ann": 1132,
      "Ġinformation": 1133,
      "Ġbusiness": 1134,
      "iversity": 1135,
      "Ġresult": 1136,
      "Ġboth": 1137,
      "Ġ$\\": 1138,
      "ĠIs": 1139,
      "ier": 1140,
      ".,": 1141,
      "yn": 1142,
      "ized": 1143,
      "Ġmark": 1144,
      "ox": 1145,
      "Ġreturn": 1146,
      "ined": 1147,
      "Ġreal": 1148,
      "Ġchild": 1149,
      "ional": 1150,
      "cent": 1151,
      "ĠZ": 1152,
      "Ġstill": 1153,
      "ruct": 1154,
      "ĠEx": 1155,
      "Ġdel": 1156,
      "Ġaround": 1157,
      "Ġfound": 1158,
      "to": 1159,
      "Ġthough": 1160,
      "ection": 1161,
      "Ġprovid": 1162,
      "akes": 1163,
      "Ġdist": 1164,
      "Ġhome": 1165,
      "Ġty": 1166,
      "ross": 1167,
      "orn": 1168,
      "ĠâĢĶ": 1169,
      "ature": 1170,
      "Ġgl": 1171,
      "Ġinf": 1172,
      "ĠThey": 1173,
      "gy": 1174,
      "Ðº": 1175,
      "oad": 1176,
      "ants": 1177,
      "Ġcent": 1178,
      "ĠBl": 1179,
      "Ġteam": 1180,
      "Ġbook": 1181,
      "Ġ/": 1182,
      "Ġthree": 1183,
      "ER": 1184,
      "Ġdesign": 1185,
      "Ġcare": 1186,
      "oot": 1187,
      "cond": 1188,
      "aj": 1189,
      "ĠPh": 1190,
      "ĠFr": 1191,
      "ness": 1192,
      "Ġappro": 1193,
      "Ġlar": 1194,
      "ww": 1195,
      "'ve": 1196,
      "Ġfr": 1197,
      "ved": 1198,
      "Ġusing": 1199,
      "Ġsol": 1200,
      "ĠSo": 1201,
      "'m": 1202,
      "Ñĥ": 1203,
      "ĠCon": 1204,
      "ral": 1205,
      "sc": 1206,
      "Ġpartic": 1207,
      "Ġsl": 1208,
      "Ġrun": 1209,
      "ĠGr": 1210,
      "ired": 1211,
      "Ġduring": 1212,
      "ield": 1213,
      "Ġsay": 1214,
      "Ġ#": 1215,
      "Ġfact": 1216,
      "Ġprogram": 1217,
      "Ġreally": 1218,
      "raph": 1219,
      "In": 1220,
      "ĠPl": 1221,
      "self": 1222,
      "Ġdep": 1223,
      "Ġref": 1224,
      "Ġprocess": 1225,
      "Ġconst": 1226,
      "----": 1227,
      "ared": 1228,
      "Ġreport": 1229,
      "Ġgoing": 1230,
      "ished": 1231,
      "....": 1232,
      "ural": 1233,
      "Ġpa": 1234,
      "Ġconf": 1235,
      "ms": 1236,
      "ĠInd": 1237,
      "ĠAll": 1238,
      "ĠWhat": 1239,
      "ik": 1240,
      "Ġest": 1241,
      "Ġnumber": 1242,
      "://": 1243,
      "Ġĉĉ": 1244,
      "ĠSp": 1245,
      "atic": 1246,
      "Ġsoc": 1247,
      "bers": 1248,
      "Ġcr": 1249,
      "Ġcontin": 1250,
      "\">": 1251,
      "Ġresp": 1252,
      "ody": 1253,
      "ision": 1254,
      "math": 1255,
      "ĠTo": 1256,
      "Ġpost": 1257,
      "St": 1258,
      "âĢĶ": 1259,
      "ying": 1260,
      "Ġ12": 1261,
      "\",": 1262,
      "app": 1263,
      "ption": 1264,
      "ĠĠĠĠĠ": 1265,
      "ym": 1266,
      "Ġcle": 1267,
      "ving": 1268,
      "illion": 1269,
      "()": 1270,
      "Ġpat": 1271,
      "Ġplace": 1272,
      "Ġlist": 1273,
      "Ġincluding": 1274,
      "pro": 1275,
      "ense": 1276,
      "ator": 1277,
      "ĠÂ": 1278,
      "rence": 1279,
      "Ġdirect": 1280,
      "Ġtechn": 1281,
      "Ġiss": 1282,
      "br": 1283,
      "Ġopen": 1284,
      "Ġprof": 1285,
      "Ġĉ": 1286,
      "err": 1287,
      "Ġadv": 1288,
      "par": 1289,
      "ĠMar": 1290,
      "ways": 1291,
      "eng": 1292,
      "riend": 1293,
      "Ġpass": 1294,
      "inal": 1295,
      "arn": 1296,
      "ĠTe": 1297,
      "ĠRes": 1298,
      "Ġwrit": 1299,
      "Ġposs": 1300,
      "Ġschool": 1301,
      "Ġproduct": 1302,
      "Ġpur": 1303,
      "ĠComm": 1304,
      "att": 1305,
      "Ġhealth": 1306,
      "cur": 1307,
      "que": 1308,
      "ining": 1309,
      "Ġpar": 1310,
      "Ġexpl": 1311,
      "lement": 1312,
      "Ġmain": 1313,
      "ially": 1314,
      "ĠCol": 1315,
      "Ġsk": 1316,
      "12": 1317,
      "Ġhapp": 1318,
      "lease": 1319,
      "sp": 1320,
      "und": 1321,
      "Ġtoo": 1322,
      "Ġfew": 1323,
      "Ġtop": 1324,
      "Ġbuild": 1325,
      "less": 1326,
      "ploy": 1327,
      "Ġproject": 1328,
      "gg": 1329,
      "ering": 1330,
      "iving": 1331,
      "Ġname": 1332,
      "Ġmust": 1333,
      "ote": 1334,
      "Ġorgan": 1335,
      "Ġinterest": 1336,
      "ittle": 1337,
      "ina": 1338,
      "vernment": 1339,
      "rol": 1340,
      "Ġeffect": 1341,
      "ered": 1342,
      "rem": 1343,
      "ality": 1344,
      "Ġperform": 1345,
      "Ġstate": 1346,
      "ĠUniversity": 1347,
      "Ġoper": 1348,
      "ember": 1349,
      "Ġmonth": 1350,
      "omen": 1351,
      "Ġmus": 1352,
      "ccess": 1353,
      "ron": 1354,
      "Ġrest": 1355,
      "ĠUS": 1356,
      "ases": 1357,
      "Ġincre": 1358,
      "ON": 1359,
      "rist": 1360,
      "Ġsince": 1361,
      "mber": 1362,
      "son": 1363,
      "ething": 1364,
      "Ġlot": 1365,
      "ustom": 1366,
      "text": 1367,
      "Ð²": 1368,
      "pos": 1369,
      "Ġagainst": 1370,
      "ĠWhen": 1371,
      "ma": 1372,
      "ĠOr": 1373,
      "stand": 1374,
      "Ġ15": 1375,
      "Ġlaw": 1376,
      "Ġinvest": 1377,
      "Ġ+": 1378,
      "ves": 1379,
      "Ġstand": 1380,
      "Ġallow": 1381,
      "Ġprot": 1382,
      "ĠAt": 1383,
      "thing": 1384,
      "Ġmov": 1385,
      "11": 1386,
      "Ġ//": 1387,
      "Ġz": 1388,
      "ission": 1389,
      "Ġtest": 1390,
      "Ġsmall": 1391,
      "over": 1392,
      "ency": 1393,
      "Ġcome": 1394,
      "Ġanother": 1395,
      "Ġcase": 1396,
      "Ġplan": 1397,
      "Ġhead": 1398,
      "ailable": 1399,
      "Ġtri": 1400,
      "Ġcompany": 1401,
      "Ġfamily": 1402,
      "Ġweek": 1403,
      "Ġopp": 1404,
      "Ġdi": 1405,
      "oard": 1406,
      "Ġeas": 1407,
      "Ġequ": 1408,
      "ec": 1409,
      "Ġhist": 1410,
      "put": 1411,
      "Ġrece": 1412,
      "Ġquest": 1413,
      "ery": 1414,
      "min": 1415,
      "of": 1416,
      "ertain": 1417,
      "ĠThat": 1418,
      "uro": 1419,
      "oss": 1420,
      "Ġide": 1421,
      "Ġwithout": 1422,
      "Ġdem": 1423,
      "Ġthings": 1424,
      "IN": 1425,
      "ĠWith": 1426,
      "Ġleg": 1427,
      "Ġpower": 1428,
      "'ll": 1429,
      "ization": 1430,
      "outh": 1431,
      "Ġnext": 1432,
      "Ġgame": 1433,
      "Ġrese": 1434,
      "Ġsecond": 1435,
      "21": 1436,
      "ately": 1437,
      "Ġcurrent": 1438,
      "ior": 1439,
      "ott": 1440,
      "Ġ199": 1441,
      "Ġann": 1442,
      "Ġsomething": 1443,
      "ample": 1444,
      "ling": 1445,
      "Ġproble": 1446,
      "Ġhum": 1447,
      "Ġput": 1448,
      "Ġet": 1449,
      "ref": 1450,
      "Ġ:": 1451,
      "Ġ_": 1452,
      "lection": 1453,
      "ically": 1454,
      "orth": 1455,
      "Ġlevel": 1456,
      "ump": 1457,
      "ien": 1458,
      "uthor": 1459,
      "Ġinc": 1460,
      "Ġpop": 1461,
      "med": 1462,
      "Ġ11": 1463,
      "ley": 1464,
      "ĠMay": 1465,
      "Ġfeel": 1466,
      "ains": 1467,
      "ĠNo": 1468,
      "ĠGo": 1469,
      "Ġbig": 1470,
      "oci": 1471,
      "}\\": 1472,
      "Ġalways": 1473,
      "Ġbro": 1474,
      "ohn": 1475,
      "Ġca": 1476,
      "ised": 1477,
      "Ġimportant": 1478,
      "Ġbetter": 1479,
      "Ġnever": 1480,
      "Ġstat": 1481,
      "ope": 1482,
      "Ġlittle": 1483,
      "conom": 1484,
      "Ġmanag": 1485,
      "Ġmight": 1486,
      "ified": 1487,
      "val": 1488,
      "Ġmet": 1489,
      "Ġmat": 1490,
      "ĠCent": 1491,
      "Ġturn": 1492,
      "ider": 1493,
      "lex": 1494,
      "Ġkeep": 1495,
      "iven": 1496,
      "Ġold": 1497,
      "reen": 1498,
      "Ġpresent": 1499,
      "ivid": 1500,
      "por": 1501,
      "30": 1502,
      "Ġspe": 1503,
      "Ġavailable": 1504,
      "âĢĵ": 1505,
      "Ġfree": 1506,
      "Ġmarket": 1507,
      "ĠĠĠĠĠĠĠĠĠĠĠĠĠĠĠ": 1508,
      "50": 1509,
      "ream": 1510,
      "ium": 1511,
      "iron": 1512,
      "Ġwon": 1513,
      "ury": 1514,
      "Ġhtt": 1515,
      "ĠJan": 1516,
      "Ġlet": 1517,
      "ĠMan": 1518,
      "Ġwithin": 1519,
      "eb": 1520,
      "ration": 1521,
      "18": 1522,
      "une": 1523,
      "Ġlove": 1524,
      "Ġterm": 1525,
      "Ġorder": 1526,
      "Ġproper": 1527,
      "ĠCan": 1528,
      "AT": 1529,
      "ethod": 1530,
      "itions": 1531,
      "ĠAm": 1532,
      "sh": 1533,
      "here": 1534,
      "ived": 1535,
      "Ġcap": 1536,
      "oid": 1537,
      "ument": 1538,
      "Ġsays": 1539,
      "ource": 1540,
      "ES": 1541,
      "Ġpay": 1542,
      "Ġseem": 1543,
      "co": 1544,
      "til": 1545,
      "Ġgrow": 1546,
      "Ġfour": 1547,
      "right": 1548,
      "Ġgot": 1549,
      "Ġes": 1550,
      "ording": 1551,
      "Ġbelie": 1552,
      "vious": 1553,
      "ĠEng": 1554,
      "ories": 1555,
      "Ġview": 1556,
      "ĠBy": 1557,
      "ability": 1558,
      "Ġwater": 1559,
      "Ġexperience": 1560,
      "^{": 1561,
      "ively": 1562,
      "Ġfac": 1563,
      "Ġbeh": 1564,
      "Ġsing": 1565,
      "Ġhard": 1566,
      "icle": 1567,
      "Ñı": 1568,
      "Ġfunction": 1569,
      "lish": 1570,
      "ured": 1571,
      "Ġfriend": 1572,
      "Ġcost": 1573,
      "Ġless": 1574,
      "fr": 1575,
      "enn": 1576,
      "22": 1577,
      "ĠJohn": 1578,
      "Ġmar": 1579,
      "ries": 1580,
      "Ġintern": 1581,
      "}$": 1582,
      "ients": 1583,
      "Ġservice": 1584,
      "Ġask": 1585,
      "Ġgroup": 1586,
      "work": 1587,
      "ray": 1588,
      "Ġelect": 1589,
      "Ġbre": 1590,
      "Ġ@": 1591,
      "Ġaff": 1592,
      "Ġchange": 1593,
      "ple": 1594,
      "acy": 1595,
      "ng": 1596,
      "Ġcustom": 1597,
      "ĠCo": 1598,
      "Ġfull": 1599,
      "ĠCar": 1600,
      "Ġaccess": 1601,
      "Ġlocal": 1602,
      "ention": 1603,
      "Ġvalue": 1604,
      "==": 1605,
      "oor": 1606,
      "tain": 1607,
      "ently": 1608,
      "ats": 1609,
      "ged": 1610,
      "Ġchang": 1611,
      "inc": 1612,
      "AR": 1613,
      "Ġprom": 1614,
      "ortun": 1615,
      "Ġnon": 1616,
      "Ġwin": 1617,
      "Ġdr": 1618,
      "Ġable": 1619,
      "oney": 1620,
      "iety": 1621,
      "ney": 1622,
      "ential": 1623,
      "uck": 1624,
      "Ð¼": 1625,
      "ĠPr": 1626,
      "Ġexpect": 1627,
      "ĠAmerican": 1628,
      "ably": 1629,
      "ober": 1630,
      "ĠÃ": 1631,
      "ĠNe": 1632,
      "Ġ16": 1633,
      "Ġworking": 1634,
      "Ġbas": 1635,
      "ĠChrist": 1636,
      "15": 1637,
      "ane": 1638,
      "aim": 1639,
      "Ġdays": 1640,
      "ination": 1641,
      "16": 1642,
      "ush": 1643,
      "Ġsit": 1644,
      "',": 1645,
      "ird": 1646,
      "ead": 1647,
      "Ġcho": 1648,
      "Ġchildren": 1649,
      "Ð´": 1650,
      "ĠX": 1651,
      "Ġeng": 1652,
      "by": 1653,
      "me": 1654,
      "ĠMed": 1655,
      "ajor": 1656,
      "ours": 1657,
      "OR": 1658,
      "Ġprovide": 1659,
      "Ġoffic": 1660,
      "Ġcountry": 1661,
      "ee": 1662,
      "Ġaddition": 1663,
      "aut": 1664,
      "Ġgovernment": 1665,
      "ĠWor": 1666,
      "ĠOne": 1667,
      "Ġsuccess": 1668,
      "ising": 1669,
      "Ġarea": 1670,
      "Ġcond": 1671,
      "Ġpract": 1672,
      "Ġmeet": 1673,
      "ĠUnited": 1674,
      "Ñĸ": 1675,
      "Ġactiv": 1676,
      "ret": 1677,
      "ai": 1678,
      "Ġlight": 1679,
      "resent": 1680,
      "Ġleft": 1681,
      "__": 1682,
      "aster": 1683,
      "ĠBr": 1684,
      "ĠRep": 1685,
      "Ġgive": 1686,
      "Ġstudents": 1687,
      "Ġapplic": 1688,
      "Ġ14": 1689,
      "Ġ30": 1690,
      "Ġ17": 1691,
      "ĠApp": 1692,
      "Ġevent": 1693,
      "irc": 1694,
      "ocus": 1695,
      "equ": 1696,
      "Ġstory": 1697,
      "Ġsure": 1698,
      "elt": 1699,
      "ĠFl": 1700,
      "Ġrecord": 1701,
      "Ġindust": 1702,
      "set": 1703,
      "ĠMy": 1704,
      "ung": 1705,
      "viron": 1706,
      "Ġ2019": 1707,
      "Ġ2018": 1708,
      "Ġservices": 1709,
      "Ġdev": 1710,
      "Ġresearch": 1711,
      "ister": 1712,
      "augh": 1713,
      "Ġcommunity": 1714,
      "uly": 1715,
      "ots": 1716,
      "Ġemploy": 1717,
      "iting": 1718,
      "Ġcharact": 1719,
      "Ġpast": 1720,
      "Ġconn": 1721,
      "AN": 1722,
      "Ġpriv": 1723,
      "eter": 1724,
      "for": 1725,
      "uture": 1726,
      "ateg": 1727,
      "ending": 1728,
      "Ġunderstand": 1729,
      "Ġmillion": 1730,
      "ĠPol": 1731,
      "ards": 1732,
      "ware": 1733,
      "Ġnear": 1734,
      "Ġopt": 1735,
      "Ġanal": 1736,
      "Ġmaking": 1737,
      "14": 1738,
      "->": 1739,
      "ulation": 1740,
      "Ġsocial": 1741,
      "side": 1742,
      "iver": 1743,
      "Ġline": 1744,
      "Ġaway": 1745,
      "Ġ13": 1746,
      "Ġmusic": 1747,
      "Ġland": 1748,
      "Ġmove": 1749,
      "Ġve": 1750,
      "Ġ,": 1751,
      "Ġspecial": 1752,
      "duct": 1753,
      "ĠMe": 1754,
      "ians": 1755,
      "itive": 1756,
      "Ġaut": 1757,
      "ales": 1758,
      "Ġdesc": 1759,
      "Ġalong": 1760,
      "ended": 1761,
      "ĠAb": 1762,
      "Ġtoday": 1763,
      "Ġcalled": 1764,
      "veral": 1765,
      "Ġocc": 1766,
      "Ġself": 1767,
      "Ġfollowing": 1768,
      "rop": 1769,
      "ĠEuro": 1770,
      "}}": 1771,
      "ergy": 1772,
      "Ġpolit": 1773,
      "ows": 1774,
      "org": 1775,
      "Ġuntil": 1776,
      "tr": 1777,
      "Ġbased": 1778,
      "lished": 1779,
      "Ġfore": 1780,
      "go": 1781,
      "Ġmult": 1782,
      "Ġwhy": 1783,
      "idd": 1784,
      "ID": 1785,
      "ĠAss": 1786,
      "ready": 1787,
      "ference": 1788,
      "Ġorig": 1789,
      "urs": 1790,
      "osp": 1791,
      "17": 1792,
      "ole": 1793,
      "ĠIm": 1794,
      "ourn": 1795,
      "Ġexc": 1796,
      "ĠAfter": 1797,
      "osed": 1798,
      "ograph": 1799,
      "Ġcourse": 1800,
      "aff": 1801,
      "Ġimpro": 1802,
      "Ġ</": 1803,
      "rict": 1804,
      "ances": 1805,
      "\".": 1806,
      "ĠHowever": 1807,
      "Ã¡": 1808,
      "Ġjob": 1809,
      "Ġtem": 1810,
      "Ġmean": 1811,
      "Ġphot": 1812,
      "Ġident": 1813,
      "abel": 1814,
      "pped": 1815,
      "ique": 1816,
      "Ġacross": 1817,
      "Ġwomen": 1818,
      "alf": 1819,
      "yl": 1820,
      "itor": 1821,
      "gether": 1822,
      "Ġtogether": 1823,
      "icy": 1824,
      "load": 1825,
      "ĠInst": 1826,
      "fer": 1827,
      "Ġmil": 1828,
      "amb": 1829,
      "Ġlarge": 1830,
      "raw": 1831,
      "EN": 1832,
      "ĠThese": 1833,
      "Ġlim": 1834,
      "Ġmajor": 1835,
      "ĠGu": 1836,
      "Ġmembers": 1837,
      "Ġtimes": 1838,
      "ĠSte": 1839,
      "13": 1840,
      "ividual": 1841,
      "ike": 1842,
      "ST": 1843,
      "Ġcreat": 1844,
      "curity": 1845,
      "Ġexample": 1846,
      "ĠEd": 1847,
      "yle": 1848,
      "Ġmen": 1849,
      "Ġhaving": 1850,
      "rap": 1851,
      "vironment": 1852,
      "wards": 1853,
      "aces": 1854,
      "'d": 1855,
      "Ġnet": 1856,
      "ĠDo": 1857,
      "comm": 1858,
      "Ġoften": 1859,
      "200": 1860,
      "Ġgiven": 1861,
      "Ġfar": 1862,
      "Ġprofess": 1863,
      "ĠDr": 1864,
      "uff": 1865,
      "Ġpossible": 1866,
      "ison": 1867,
      "Ġbecome": 1868,
      "urther": 1869,
      "Ġdidn": 1870,
      "Ġdevelopment": 1871,
      "Ġalready": 1872,
      "che": 1873,
      "(\"": 1874,
      "Ġkind": 1875,
      "Ġshort": 1876,
      "artment": 1877,
      "Ġcontrol": 1878,
      "Ġlik": 1879,
      "aterial": 1880,
      "Ġtype": 1881,
      "Ġwar": 1882,
      "Ġpot": 1883,
      "ĠMon": 1884,
      "Ġseason": 1885,
      "Ġvers": 1886,
      "cal": 1887,
      "Ġeconom": 1888,
      "ĠYork": 1889,
      "ĠIntern": 1890,
      "Ġthing": 1891,
      "Ġ2017": 1892,
      "Ġtrad": 1893,
      "Ġcamp": 1894,
      "Ġeduc": 1895,
      "Ġfocus": 1896,
      "Ġhuman": 1897,
      "ĠNational": 1898,
      "ÑģÑĤ": 1899,
      "Ġsw": 1900,
      "obal": 1901,
      "Ġauthor": 1902,
      "Ġinclude": 1903,
      "(\\": 1904,
      "ĠÐ¿": 1905,
      "ored": 1906,
      "Ġparticular": 1907,
      "vert": 1908,
      "Ġclear": 1909,
      "ĠCont": 1910,
      "ideo": 1911,
      "Ġconc": 1912,
      "roll": 1913,
      "ights": 1914,
      "Ġseveral": 1915,
      "Ġtreat": 1916,
      "Ã³": 1917,
      "Ġfeat": 1918,
      "Ġcity": 1919,
      "Ġair": 1920,
      "Ġmethod": 1921,
      "not": 1922,
      "ither": 1923,
      "utes": 1924,
      "ĠMin": 1925,
      "ift": 1926,
      "lev": 1927,
      "Ġcertain": 1928,
      "utions": 1929,
      "AL": 1930,
      "aps": 1931,
      "Ġleast": 1932,
      "ify": 1933,
      "Ġlearn": 1934,
      "ÑĮ": 1935,
      "Ġtell": 1936,
      "iod": 1937,
      "ask": 1938,
      "Ġbegin": 1939,
      "ills": 1940,
      "ĠWorld": 1941,
      "Ġwr": 1942,
      "ĠState": 1943,
      "Ġfilm": 1944,
      "sel": 1945,
      "orts": 1946,
      "leg": 1947,
      "Ġaccount": 1948,
      "Ġindividual": 1949,
      "Ġcame": 1950,
      "ĠEm": 1951,
      "Ġroom": 1952,
      "isk": 1953,
      "Ġmoney": 1954,
      "Ġonline": 1955,
      "Ġ2016": 1956,
      "ands": 1957,
      "Ġfood": 1958,
      "ĠEurope": 1959,
      "ected": 1960,
      "Ġfuture": 1961,
      "ĠOur": 1962,
      "uary": 1963,
      "Ġbene": 1964,
      "eral": 1965,
      "Ġmeans": 1966,
      "joy": 1967,
      "ĠPres": 1968,
      "ails": 1969,
      "Ġever": 1970,
      "Ġtalk": 1971,
      "begin": 1972,
      "ript": 1973,
      "Ġhouse": 1974,
      "Ġinvol": 1975,
      "ef": 1976,
      "ĠCount": 1977,
      "Ġknown": 1978,
      "ched": 1979,
      "Ġ198": 1980,
      "Ġlooking": 1981,
      "ĠComp": 1982,
      "aring": 1983,
      "imate": 1984,
      "ides": 1985,
      "Ġlater": 1986,
      "Ġce": 1987,
      "Ġcult": 1988,
      "idence": 1989,
      "ĠGe": 1990,
      "Ġwebs": 1991,
      "Ġenough": 1992,
      "ape": 1993,
      "Ġothers": 1994,
      "back": 1995,
      "Ġside": 1996,
      "Ġant": 1997,
      "Ġdone": 1998,
      "Ġhistory": 1999,
      "::": 2000,
      "ources": 2001,
      "ĠOct": 2002,
      "Ġren": 2003,
      "Ġearly": 2004,
      "ffic": 2005,
      "Ġstudy": 2006,
      "Ġworks": 2007,
      "Ġcreate": 2008,
      "ids": 2009,
      "Ġ2020": 2010,
      "ĠApr": 2011,
      "Ġx": 2012,
      "aken": 2013,
      "oman": 2014,
      "ones": 2015,
      "most": 2016,
      "ued": 2017,
      "ball": 2018,
      "ĠStates": 2019,
      "ilar": 2020,
      "Ġmom": 2021,
      "Ġkey": 2022,
      "ĠCity": 2023,
      "Ġlo": 2024,
      "ÃŃ": 2025,
      "Ġvol": 2026,
      "Ġspace": 2027,
      "Ġreview": 2028,
      "Ġdri": 2029,
      "AS": 2030,
      "Ġsite": 2031,
      "ĠAct": 2032,
      "ĠNot": 2033,
      "hat": 2034,
      "upp": 2035,
      "();": 2036,
      "ĠAust": 2037,
      "Ġtook": 2038,
      "ament": 2039,
      "ams": 2040,
      "ĠWill": 2041,
      "ler": 2042,
      "ada": 2043,
      "play": 2044,
      "abor": 2045,
      "ĠAug": 2046,
      "Ġhold": 2047,
      "Ġfre": 2048,
      "Ġtot": 2049,
      "Ġopportun": 2050,
      "ĠÐ²": 2051,
      "umm": 2052,
      "ĠBro": 2053,
      "ĠSchool": 2054,
      "ners": 2055,
      "ĠCal": 2056,
      "Ġmakes": 2057,
      "ĠPart": 2058,
      "Ġdiscuss": 2059,
      "irl": 2060,
      "ĠMc": 2061,
      "Ġ25": 2062,
      "Ġpub": 2063,
      "Ġhig": 2064,
      "fic": 2065,
      "Ġproblem": 2066,
      "ĠMr": 2067,
      "agn": 2068,
      "Ġlow": 2069,
      "Ġmodel": 2070,
      "Ġamong": 2071,
      "Ġstrong": 2072,
      "Ġseries": 2073,
      "Ġcomb": 2074,
      "iol": 2075,
      "Ġnight": 2076,
      "ĠDep": 2077,
      "ĠMarch": 2078,
      "Ġclaim": 2079,
      "ĠSouth": 2080,
      "ained": 2081,
      "sw": 2082,
      "IT": 2083,
      "lege": 2084,
      "Ġspecific": 2085,
      "ĠAf": 2086,
      "Ġ...": 2087,
      "urch": 2088,
      "ster": 2089,
      "Ġpain": 2090,
      ")$": 2091,
      "Ġlive": 2092,
      "rew": 2093,
      "Ġdoc": 2094,
      "raft": 2095,
      "ogn": 2096,
      "25": 2097,
      "ĠDes": 2098,
      "af": 2099,
      "Ġrequire": 2100,
      "ĠEl": 2101,
      "ding": 2102,
      "Ġthought": 2103,
      "rain": 2104,
      "ule": 2105,
      "Ġbody": 2106,
      "ĠPe": 2107,
      "ony": 2108,
      "ĠPar": 2109,
      "verage": 2110,
      "Ġdoing": 2111,
      "Ġneeds": 2112,
      "ĠChe": 2113,
      "Ġdeal": 2114,
      "Ġobject": 2115,
      "23": 2116,
      "Ġonce": 2117,
      "Ġresults": 2118,
      "Ġtrue": 2119,
      "Ġelse": 2120,
      "ĠHar": 2121,
      "Ġmeas": 2122,
      "ze": 2123,
      "Ġmaterial": 2124,
      "Ġ2015": 2125,
      "ĠQu": 2126,
      "Ñĭ": 2127,
      "uf": 2128,
      "Ġappear": 2129,
      "Ġenc": 2130,
      "ĠGl": 2131,
      "Ġenjoy": 2132,
      "reg": 2133,
      "Ġtyp": 2134,
      "arget": 2135,
      "Ġfive": 2136,
      "ĠGod": 2137,
      "Ġyoung": 2138,
      "Ġbit": 2139,
      "Ġ24": 2140,
      "Ġredu": 2141,
      "Ġdoesn": 2142,
      "Ġdue": 2143,
      "ama": 2144,
      "Ġcheck": 2145,
      "Ġseen": 2146,
      "Ġinit": 2147,
      "lete": 2148,
      "Ġhappen": 2149,
      "book": 2150,
      "):": 2151,
      "Ġreason": 2152,
      "bl": 2153,
      "ĠJanuary": 2154,
      "ĠHis": 2155,
      "Ġsuper": 2156,
      "Ġrepresent": 2157,
      "reet": 2158,
      "IC": 2159,
      "pping": 2160,
      "ĠDis": 2161,
      "rodu": 2162,
      "Ġpersonal": 2163,
      "Ġ100": 2164,
      "ilities": 2165,
      "ators": 2166,
      "Ġwent": 2167,
      "anies": 2168,
      "ino": 2169,
      "Ġsingle": 2170,
      "Ġbo": 2171,
      "Ġcrit": 2172,
      "ĠSept": 2173,
      "ĠPa": 2174,
      "Ġcompet": 2175,
      "Ġperiod": 2176,
      "ĠArt": 2177,
      "Ġrelations": 2178,
      "error": 2179,
      "lu": 2180,
      "Ġport": 2181,
      "Ġpercent": 2182,
      "ype": 2183,
      "Ã¤": 2184,
      "Ġquestion": 2185,
      "ED": 2186,
      "Ġjo": 2187,
      "ÑĢÐ°": 2188,
      "Ġwhether": 2189,
      "Ġsignific": 2190,
      "fect": 2191,
      "Ġstarted": 2192,
      "Ġmind": 2193,
      "}{": 2194,
      "ounds": 2195,
      "ĠJune": 2196,
      "Ġoffer": 2197,
      "ches": 2198,
      "Ġcomes": 2199,
      "Ġchall": 2200,
      "ĠApril": 2201,
      "Ġindustry": 2202,
      "Ġfinal": 2203,
      "Ġabove": 2204,
      "oud": 2205,
      "igure": 2206,
      "ml": 2207,
      "cer": 2208,
      "Ġcomplet": 2209,
      "Ġcell": 2210,
      "ĠMore": 2211,
      "ault": 2212,
      "ibility": 2213,
      "ĠNorth": 2214,
      "onse": 2215,
      "hers": 2216,
      "ĠServ": 2217,
      "Ġmonths": 2218,
      "Ġactually": 2219,
      "Ġenergy": 2220,
      "my": 2221,
      "ĠBar": 2222,
      "Ġvisit": 2223,
      "Ġpress": 2224,
      "Ġnews": 2225,
      "olution": 2226,
      "illed": 2227,
      "angu": 2228,
      "Ġprob": 2229,
      "Ġfield": 2230,
      "ges": 2231,
      "ĠCor": 2232,
      "Ġfav": 2233,
      "ĠWar": 2234,
      "Ġproducts": 2235,
      "Ġtold": 2236,
      "--------": 2237,
      "Ġstep": 2238,
      "Ġaddress": 2239,
      "str": 2240,
      "},": 2241,
      "Ġpri": 2242,
      "www": 2243,
      "ĠFeb": 2244,
      "ression": 2245,
      "iter": 2246,
      "ilt": 2247,
      "Ġtax": 2248,
      "Ġbring": 2249,
      "ples": 2250,
      "Ġmedia": 2251,
      "rm": 2252,
      "It": 2253,
      "Ñĩ": 2254,
      "though": 2255,
      "ume": 2256,
      "frac": 2257,
      "Ġyet": 2258,
      "Ġgetting": 2259,
      "ĠJuly": 2260,
      "Ġwebsite": 2261,
      "Ġprivate": 2262,
      "Ġtry": 2263,
      "Ġquality": 2264,
      "part": 2265,
      "uation": 2266,
      "ĠPer": 2267,
      "gest": 2268,
      "ĠStud": 2269,
      "ification": 2270,
      "ival": 2271,
      "Ġey": 2272,
      "Ġdeb": 2273,
      "ancial": 2274,
      "now": 2275,
      "Ġenvironment": 2276,
      "Ġ2014": 2277,
      "ĠDav": 2278,
      "Ġfurther": 2279,
      "room": 2280,
      "time": 2281,
      "Ġmot": 2282,
      "Ġwind": 2283,
      "_{\\": 2284,
      "ĠNow": 2285,
      "AC": 2286,
      "We": 2287,
      "Ġexist": 2288,
      "ception": 2289,
      "Ð½Ð¸": 2290,
      "ĠCO": 2291,
      "irm": 2292,
      "ried": 2293,
      "Ġcharacter": 2294,
      "Ġrespons": 2295,
      "Ġbuilding": 2296,
      "ĠReg": 2297,
      "face": 2298,
      "('": 2299,
      "Con": 2300,
      "itted": 2301,
      "hing": 2302,
      "Ġcal": 2303,
      "Ġpage": 2304,
      "ests": 2305,
      "ĠKe": 2306,
      "itle": 2307,
      "Ġder": 2308,
      "anks": 2309,
      "Ġstruct": 2310,
      "Ġrespect": 2311,
      "used": 2312,
      "chie": 2313,
      "EC": 2314,
      "oon": 2315,
      "cember": 2316,
      "Ġmess": 2317,
      "Ġ197": 2318,
      "Ġconsider": 2319,
      "ĠWhile": 2320,
      "irt": 2321,
      "Ġshare": 2322,
      "ili": 2323,
      "IS": 2324,
      "ĠPresident": 2325,
      "ĠJust": 2326,
      "unch": 2327,
      "60": 2328,
      "head": 2329,
      "ournal": 2330,
      "ĠAg": 2331,
      "oph": 2332,
      "Ġphys": 2333,
      "ovember": 2334,
      "Ġsent": 2335,
      "ĠFrom": 2336,
      "na": 2337,
      "Ġrange": 2338,
      "asing": 2339,
      "Ġtext": 2340,
      "Ġrole": 2341,
      "ĠHer": 2342,
      "Ġcontent": 2343,
      "Ġ>": 2344,
      "?\"": 2345,
      "ĠAcc": 2346,
      "Ġbenef": 2347,
      "ĠNews": 2348,
      "atural": 2349,
      "Ġens": 2350,
      "Ġdeterm": 2351,
      "ĠSoc": 2352,
      "Ġcommon": 2353,
      "Ġcompanies": 2354,
      "40": 2355,
      "ĠBrit": 2356,
      "Ġquick": 2357,
      "Ġ50": 2358,
      "ĠSm": 2359,
      "nd": 2360,
      "earch": 2361,
      "minist": 2362,
      "Ġissues": 2363,
      "Ġlat": 2364,
      "ibr": 2365,
      "ĠÑģ": 2366,
      "Ġtechnology": 2367,
      "Ġface": 2368,
      "ounc": 2369,
      "Ġpack": 2370,
      "Ġbreak": 2371,
      "ops": 2372,
      "****": 2373,
      "Ġvideo": 2374,
      "Ġprevious": 2375,
      "Ġdeath": 2376,
      "ci": 2377,
      "ĠSun": 2378,
      "Ġaud": 2379,
      "Ġarg": 2380,
      "Ġsugg": 2381,
      "icro": 2382,
      "Ġbar": 2383,
      "ruction": 2384,
      "Ġwa": 2385,
      "ĠSeptember": 2386,
      "Ġbeaut": 2387,
      "Ġaction": 2388,
      "Ġsignificant": 2389,
      "Ġposition": 2390,
      "Ð¾Ð²": 2391,
      "Ġbelow": 2392,
      "ana": 2393,
      "epend": 2394,
      "clus": 2395,
      "Ġobs": 2396,
      "ĠDecember": 2397,
      "ief": 2398,
      "Ex": 2399,
      "ĠLa": 2400,
      "ĠMus": 2401,
      "Ġgeneral": 2402,
      "ĠOctober": 2403,
      "ĠAugust": 2404,
      "Ġhalf": 2405,
      "selves": 2406,
      "ises": 2407,
      "Ġeasy": 2408,
      "pecially": 2409,
      "cy": 2410,
      "Ġwhole": 2411,
      "Ġcut": 2412,
      "ĠNovember": 2413,
      "Ġmor": 2414,
      "ĠSch": 2415,
      "Ġcontact": 2416,
      "Ġdescrib": 2417,
      "Ġheart": 2418,
      "Ġhours": 2419,
      "Ġage": 2420,
      "ĠHealth": 2421,
      "div": 2422,
      "ari": 2423,
      "Ġassoci": 2424,
      "ĠAmerica": 2425,
      "Ġparticip": 2426,
      "Ġsoft": 2427,
      "ĠFin": 2428,
      "Ġtw": 2429,
      "ĠDon": 2430,
      "era": 2431,
      "elling": 2432,
      "Ġparent": 2433,
      "cret": 2434,
      "istic": 2435,
      "ging": 2436,
      "Ġ2013": 2437,
      "ends": 2438,
      "Ġste": 2439,
      "alt": 2440,
      "ĠMark": 2441,
      "ules": 2442,
      "empt": 2443,
      "Ġfriends": 2444,
      "Ġsimilar": 2445,
      "oe": 2446,
      "Ġago": 2447,
      "Ġimpact": 2448,
      "ysis": 2449,
      "Ġdou": 2450,
      "ocr": 2451,
      "Ġperformance": 2452,
      "Ġrad": 2453,
      "Ġ--": 2454,
      "))": 2455,
      "Ġlog": 2456,
      "Ġtaken": 2457,
      "ĠWest": 2458,
      "Ġtrack": 2459,
      "Ġeither": 2460,
      "Ġalmost": 2461,
      "Ġcoll": 2462,
      "Ġhttps": 2463,
      "Ġamount": 2464,
      "Ġcompl": 2465,
      "year": 2466,
      "Ġestab": 2467,
      "ĠRuss": 2468,
      "Ġannoun": 2469,
      "Ġbelieve": 2470,
      "Ġsong": 2471,
      "Ġrepl": 2472,
      "hel": 2473,
      "uk": 2474,
      "RE": 2475,
      "iday": 2476,
      "ĠCour": 2477,
      "opy": 2478,
      "Ġnational": 2479,
      "fully": 2480,
      "ental": 2481,
      "ades": 2482,
      "ĠCounty": 2483,
      "ĠChar": 2484,
      "Ġdom": 2485,
      "umb": 2486,
      "ication": 2487,
      "Ġfail": 2488,
      "Ġsix": 2489,
      "Ġfall": 2490,
      "Ð·": 2491,
      "ledge": 2492,
      "key": 2493,
      "cle": 2494,
      "Ġthird": 2495,
      "Ġeverything": 2496,
      "Ġclose": 2497,
      "Ġtaking": 2498,
      "Ġgen": 2499,
      "Ð¹": 2500,
      "Ġgames": 2501,
      "Ġselect": 2502,
      "Ã¶": 2503,
      "ĠSome": 2504,
      "ips": 2505,
      "Ġidea": 2506,
      "dd": 2507,
      "Ġwalk": 2508,
      "ĠTH": 2509,
      "Ġvarious": 2510,
      "Ġmiss": 2511,
      "Ġ2012": 2512,
      "wh": 2513,
      "atur": 2514,
      "Ġaccording": 2515,
      "Ġentire": 2516,
      "ĠHouse": 2517,
      "Ġhy": 2518,
      "ham": 2519,
      "ological": 2520,
      "gress": 2521,
      "Ġcontrib": 2522,
      "aged": 2523,
      "Ġhom": 2524,
      "action": 2525,
      "ĠAfric": 2526,
      "ĠAustral": 2527,
      "Ġfoot": 2528,
      "Ġhost": 2529,
      "hib": 2530,
      "Ġhot": 2531,
      "fl": 2532,
      "Ġfront": 2533,
      "itch": 2534,
      "Ġ2021": 2535,
      "24": 2536,
      "Ġnecess": 2537,
      "ided": 2538,
      "Ġpie": 2539,
      "Ġupd": 2540,
      "Ġrequired": 2541,
      "Ġevents": 2542,
      "Ġshows": 2543,
      "rug": 2544,
      "Ġtotal": 2545,
      "add": 2546,
      "Ġissue": 2547,
      "Ġhowever": 2548,
      "ites": 2549,
      "ĠPark": 2550,
      "ires": 2551,
      "rel": 2552,
      "Ġess": 2553,
      "Ġsubject": 2554,
      "iff": 2555,
      "iple": 2556,
      "ender": 2557,
      "ply": 2558,
      "Ġdig": 2559,
      "Pro": 2560,
      "ĠYour": 2561,
      "cite": 2562,
      "Ġtrying": 2563,
      "Ġpoints": 2564,
      "Ġpo": 2565,
      "Ġabs": 2566,
      "Ġproperty": 2567,
      "Ġtool": 2568,
      "Ch": 2569,
      "ĠHere": 2570,
      "ĠPost": 2571,
      "ux": 2572,
      "iction": 2573,
      "aced": 2574,
      "Ġlikely": 2575,
      "Ġsize": 2576,
      "Ġareas": 2577,
      "ille": 2578,
      "ees": 2579,
      "Ð¿": 2580,
      "Ġblack": 2581,
      "Ġ21": 2582,
      "ems": 2583,
      "ij": 2584,
      "Ġrelationship": 2585,
      "Ġheld": 2586,
      "ores": 2587,
      "adem": 2588,
      "Ġcomput": 2589,
      "Ġperfect": 2590,
      "AM": 2591,
      "ga": 2592,
      "Ġrather": 2593,
      "atory": 2594,
      "Ġmanagement": 2595,
      "!!": 2596,
      "Ġcirc": 2597,
      "Ġhope": 2598,
      "Ġanything": 2599,
      "ables": 2600,
      "Ġtable": 2601,
      "bar": 2602,
      "ĠCenter": 2603,
      "da": 2604,
      "ruary": 2605,
      "ecut": 2606,
      "ength": 2607,
      "ĠOf": 2608,
      "Ġpolitical": 2609,
      "itte": 2610,
      "label": 2611,
      "lin": 2612,
      "Ġtravel": 2613,
      "Ġstay": 2614,
      "Ġep": 2615,
      "ogle": 2616,
      "Ġmass": 2617,
      "Ġtarget": 2618,
      "Ġsomeone": 2619,
      "umn": 2620,
      "apt": 2621,
      "amed": 2622,
      "Ġund": 2623,
      "ĠUK": 2624,
      "Ġachie": 2625,
      "ica": 2626,
      "Ġrecogn": 2627,
      "aving": 2628,
      "Ġmember": 2629,
      "Th": 2630,
      "Ġfeatures": 2631,
      "Ġwatch": 2632,
      "come": 2633,
      "ris": 2634,
      "Ġimprove": 2635,
      "ensive": 2636,
      "ude": 2637,
      "off": 2638,
      "Ġformer": 2639,
      "Ġcollect": 2640,
      "ondon": 2641,
      "ĠĠĠĠĠĠĠĠĠĠĠĠĠĠĠĠĠĠĠ": 2642,
      "ta": 2643,
      "Ġadded": 2644,
      "Ġden": 2645,
      "Ġoriginal": 2646,
      "Ġcontinue": 2647,
      "Ġprovided": 2648,
      "ficult": 2649,
      "aching": 2650,
      "Ġhttp": 2651,
      "Ġrisk": 2652,
      "Ġclos": 2653,
      "ĠPre": 2654,
      "cast": 2655,
      "leased": 2656,
      "iful": 2657,
      "Ġtraining": 2658,
      "ĠInternational": 2659,
      "Ġfile": 2660,
      "ĠOff": 2661,
      "Ġprim": 2662,
      "iam": 2663,
      "Ġcred": 2664,
      "ĠMich": 2665,
      "Ġattack": 2666,
      "Ġespecially": 2667,
      "bb": 2668,
      "Ġreceived": 2669,
      "Ñħ": 2670,
      "Ġagre": 2671,
      "Ġcode": 2672,
      "Ġquite": 2673,
      "ĠSw": 2674,
      "itional": 2675,
      "left": 2676,
      "Ġviol": 2677,
      "col": 2678,
      "aging": 2679,
      "rect": 2680,
      "Ġbehind": 2681,
      "ouncil": 2682,
      "Ġhon": 2683,
      "Ġ23": 2684,
      "Ġrecent": 2685,
      "ĠGerm": 2686,
      "Ġeducation": 2687,
      "eq": 2688,
      "Ġofficial": 2689,
      "Ġsat": 2690,
      "Ġleaders": 2691,
      "ht": 2692,
      "opt": 2693,
      "ĠFebruary": 2694,
      "Ġversion": 2695,
      "ĠDirect": 2696,
      "Ġliving": 2697,
      "Ġdifficult": 2698,
      "Ġfire": 2699,
      "Ġneg": 2700,
      "Ġcoming": 2701,
      "Ġchanges": 2702,
      "Ġwanted": 2703,
      "oved": 2704,
      "Ġminutes": 2705,
      "anguage": 2706,
      "ummer": 2707,
      "ĠLaw": 2708,
      "Ġasked": 2709,
      "oups": 2710,
      "Ġexam": 2711,
      "Ġsystems": 2712,
      "Ġsecurity": 2713,
      "ĠÐ½": 2714,
      "ĠFirst": 2715,
      "iddle": 2716,
      "Ġoffice": 2717,
      "mod": 2718,
      "Ġforward": 2719,
      "Ġâ": 2720,
      "bor": 2721,
      "ET": 2722,
      "Ġglobal": 2723,
      "Ġrights": 2724,
      "Ġprice": 2725,
      "ĠSer": 2726,
      "Ġcourt": 2727,
      "ague": 2728,
      "Ġpotential": 2729,
      "hern": 2730,
      "coming": 2731,
      "........": 2732,
      "Ġstaff": 2733,
      "Ġ2011": 2734,
      "Ġneeded": 2735,
      "Ġaccept": 2736,
      "Ġill": 2737,
      "Ġcases": 2738,
      "ĠHigh": 2739,
      "Ġpolicy": 2740,
      "Ġconcern": 2741,
      "cont": 2742,
      "Ġmatter": 2743,
      "ceed": 2744,
      "Ġinternational": 2745,
      "ety": 2746,
      "this": 2747,
      "Ġrecomm": 2748,
      "Ġdest": 2749,
      "Ġbad": 2750,
      "Ġred": 2751,
      "Ġ22": 2752,
      "Ġprovides": 2753,
      "Ġcreated": 2754,
      "based": 2755,
      "Ġ2010": 2756,
      "Ġupon": 2757,
      "Ġarticle": 2758,
      "ĠPat": 2759,
      "medi": 2760,
      "Name": 2761,
      "ĠUs": 2762,
      "ald": 2763,
      "icles": 2764,
      "Ġfinancial": 2765,
      "Ġterms": 2766,
      "name": 2767,
      "Ġbuy": 2768,
      "Ġmoment": 2769,
      "Ġregard": 2770,
      "itary": 2771,
      "iences": 2772,
      "ĠThen": 2773,
      "Ġquestions": 2774,
      "cial": 2775,
      "idge": 2776,
      "Ġpatients": 2777,
      "Ġsym": 2778,
      "uge": 2779,
      "80": 2780,
      "ington": 2781,
      "Ġnetwork": 2782,
      "ĠLet": 2783,
      "Ġansw": 2784,
      "Ġpers": 2785,
      "inary": 2786,
      "ĠLondon": 2787,
      "ĠVal": 2788,
      "Ġbi": 2789,
      "ederal": 2790,
      "Ġsearch": 2791,
      "Ġdate": 2792,
      "Ġwords": 2793,
      "Ġincrease": 2794,
      "urg": 2795,
      "aur": 2796,
      "Ġinn": 2797,
      "ension": 2798,
      "Ġbecame": 2799,
      "Ġdeg": 2800,
      "Ġwriting": 2801,
      "Ġpurch": 2802,
      "Ġuser": 2803,
      "Ã¼": 2804,
      "icated": 2805,
      "Ġ40": 2806,
      "lebr": 2807,
      "ÐµÑĢ": 2808,
      "ession": 2809,
      "Ġnothing": 2810,
      "Ġparty": 2811,
      "Ġimm": 2812,
      "Ġver": 2813,
      "Ġanim": 2814,
      "ground": 2815,
      "ĠChina": 2816,
      "Ġpopular": 2817,
      "Ġinvestig": 2818,
      "aign": 2819,
      "Ġeveryone": 2820,
      "99": 2821,
      "Ġproduction": 2822,
      "overed": 2823,
      "Ġpick": 2824,
      "Ġnorm": 2825,
      "Ġlink": 2826,
      "ĠNet": 2827,
      "Ġcannot": 2828,
      "ĠCons": 2829,
      "Ġcountries": 2830,
      "sy": 2831,
      "ĠDepartment": 2832,
      "atform": 2833,
      "ĠSup": 2834,
      "Ġrate": 2835,
      "resh": 2836,
      "urb": 2837,
      "Ġpath": 2838,
      "Ġwhite": 2839,
      "alse": 2840,
      "AP": 2841,
      "ĠTra": 2842,
      "aining": 2843,
      "Ġpropos": 2844,
      "Ġcomplete": 2845,
      "Ġboard": 2846,
      "ĠGener": 2847,
      "Ġways": 2848,
      "roid": 2849,
      "Ġhigher": 2850,
      "Ġpict": 2851,
      "bum": 2852,
      "Ġroad": 2853,
      "pa": 2854,
      "EL": 2855,
      "Ġsimple": 2856,
      "nes": 2857,
      "Ġdefin": 2858,
      "eta": 2859,
      "$.": 2860,
      "Ġinstall": 2861,
      "ĠAng": 2862,
      "Ġincludes": 2863,
      "Ġprobably": 2864,
      "ĠBu": 2865,
      "anced": 2866,
      "fig": 2867,
      "Ġseems": 2868,
      "$,": 2869,
      "Ġsuggest": 2870,
      "Ġoutside": 2871,
      "Ġassist": 2872,
      "Ġshall": 2873,
      "RO": 2874,
      "uel": 2875,
      "Ġpaper": 2876,
      "Ġcontract": 2877,
      "agement": 2878,
      "Ġsoon": 2879,
      "oo": 2880,
      "Ġengine": 2881,
      "Ġapplication": 2882,
      "itting": 2883,
      "Ġtakes": 2884,
      "span": 2885,
      "ny": 2886,
      "Ġut": 2887,
      "itter": 2888,
      "bf": 2889,
      "ĠTrump": 2890,
      "ĠIndia": 2891,
      "ĠKing": 2892,
      "ivity": 2893,
      "Ġoffers": 2894,
      "Ð±": 2895,
      "ached": 2896,
      "Ġpred": 2897,
      "Ġvari": 2898,
      "ĠBlack": 2899,
      "ĠDavid": 2900,
      "Ġisn": 2901,
      "izing": 2902,
      "Ġvia": 2903,
      "Ġintrodu": 2904,
      "ĠSan": 2905,
      "ĠAssoci": 2906,
      "Id": 2907,
      "Ġtown": 2908,
      "Ġbegan": 2909,
      "ror": 2910,
      "idth": 2911,
      "Ġĉĉĉĉ": 2912,
      "ctor": 2913,
      "Ġtre": 2914,
      "Ġdistrib": 2915,
      "Ġsound": 2916,
      "Ġdam": 2917,
      "Ġsense": 2918,
      "Ġnatural": 2919,
      "ivil": 2920,
      "Ġdocument": 2921,
      "ett": 2922,
      "arning": 2923,
      "ava": 2924,
      "Ġapproach": 2925,
      "Ġrequest": 2926,
      "Ġcolor": 2927,
      "Ġconsum": 2928,
      "Ġ27": 2929,
      "ription": 2930,
      "aker": 2931,
      "Ġproblems": 2932,
      "Ġlay": 2933,
      "ĠAc": 2934,
      "htt": 2935,
      "Ġaw": 2936,
      "Ġdecision": 2937,
      "Ġprint": 2938,
      "Ġ28": 2939,
      "uments": 2940,
      "Ġgirl": 2941,
      "inks": 2942,
      "Ġsimply": 2943,
      "eks": 2944,
      "ĠCourt": 2945,
      "Ġgrad": 2946,
      "new": 2947,
      "itution": 2948,
      "27": 2949,
      "ĠHol": 2950,
      "Ġcover": 2951,
      "Ġworked": 2952,
      "itute": 2953,
      "ĠII": 2954,
      "Ġque": 2955,
      "45": 2956,
      "ÐµÐ½": 2957,
      "ĠĠĠĠĠĠĠĠĠ": 2958,
      "ĠCommun": 2959,
      "Ġcareer": 2960,
      "ha": 2961,
      "Ġlives": 2962,
      "oice": 2963,
      "pha": 2964,
      "\":": 2965,
      "ouch": 2966,
      "ufact": 2967,
      "Ġtreatment": 2968,
      "Ġclean": 2969,
      "Ġitself": 2970,
      "ĠUp": 2971,
      "tty": 2972,
      "Ġgrowth": 2973,
      "oke": 2974,
      "aint": 2975,
      "Ġimage": 2976,
      "ĠDem": 2977,
      "Ġaccom": 2978,
      "ram": 2979,
      "ĠDay": 2980,
      "urance": 2981,
      "Ġsaw": 2982,
      "Ġsource": 2983,
      "ION": 2984,
      "Ġcoup": 2985,
      "eal": 2986,
      "Ġplayers": 2987,
      "Ġunique": 2988,
      "sub": 2989,
      "ĠTV": 2990,
      "ittee": 2991,
      "astic": 2992,
      "ĠHist": 2993,
      "ese": 2994,
      "ĠHome": 2995,
      "mb": 2996,
      "rences": 2997,
      "Ġsens": 2998,
      "Ġ26": 2999,
      "ospital": 3000,
      "Ġreported": 3001,
      "Ġveh": 3002,
      "Ġfund": 3003,
      ".)": 3004,
      "Ġintegr": 3005,
      "obile": 3006,
      "Ġcurrently": 3007,
      "ĠAdd": 3008,
      "Ġfavor": 3009,
      "ĠSen": 3010,
      "atives": 3011,
      "Ġloss": 3012,
      "IL": 3013,
      "Ġsect": 3014,
      "Ġprior": 3015,
      "aily": 3016,
      "Ġlate": 3017,
      "ĠEnglish": 3018,
      "ening": 3019,
      "ida": 3020,
      "hood": 3021,
      "ĠSim": 3022,
      "Ġresponse": 3023,
      "ĠJe": 3024,
      "etimes": 3025,
      "US": 3026,
      "ĠâĢ¢": 3027,
      "ags": 3028,
      "fort": 3029,
      "Ð³": 3030,
      "ĠTrans": 3031,
      "Ġinj": 3032,
      "Ġthemselves": 3033,
      "arter": 3034,
      "airs": 3035,
      ",\\": 3036,
      "ĠOb": 3037,
      "ager": 3038,
      "Ġthroughout": 3039,
      "Ġrecently": 3040,
      "32": 3041,
      "Ġknowledge": 3042,
      "Ġinflu": 3043,
      "ĠÐ¸": 3044,
      "imum": 3045,
      "Ġrev": 3046,
      "Ġsaf": 3047,
      "Ġrunning": 3048,
      "Ġsection": 3049,
      "eg": 3050,
      "Ġstyle": 3051,
      "Ġincluded": 3052,
      "Ġson": 3053,
      "Ġgroups": 3054,
      "ĠAre": 3055,
      "ĠBook": 3056,
      "iles": 3057,
      "def": 3058,
      "Ġwonder": 3059,
      "lier": 3060,
      "Ġpresident": 3061,
      "Ġbeautiful": 3062,
      "apan": 3063,
      "Ġopportunity": 3064,
      "Ġful": 3065,
      "Ġrelated": 3066,
      "OT": 3067,
      "ael": 3068,
      "Ġbed": 3069,
      "ĠRed": 3070,
      "Ġvot": 3071,
      "Ġcy": 3072,
      "Ġbooks": 3073,
      "Ġdeep": 3074,
      "Ġbase": 3075,
      "Ġsus": 3076,
      "Ġconditions": 3077,
      "asc": 3078,
      "pose": 3079,
      "Ġimplement": 3080,
      "ĠRead": 3081,
      "order": 3082,
      "ĠCalif": 3083,
      "Ġwritten": 3084,
      "sk": 3085,
      "attle": 3086,
      "ĠSystem": 3087,
      "Ġexpected": 3088,
      "Ġdise": 3089,
      "Ġsett": 3090,
      "Ġprotect": 3091,
      "ĠIr": 3092,
      "Ġground": 3093,
      "uses": 3094,
      "Ġpractice": 3095,
      "ĠEar": 3096,
      "cing": 3097,
      "unt": 3098,
      "Ġpolice": 3099,
      "light": 3100,
      "Ġsex": 3101,
      "Ġprofessional": 3102,
      "Ġlegal": 3103,
      "chen": 3104,
      "26": 3105,
      "Ġstop": 3106,
      "Ġemer": 3107,
      "Ġlonger": 3108,
      "ĠÐ¾": 3109,
      "lim": 3110,
      "Ġtour": 3111,
      "Ġbuilt": 3112,
      "Ġ196": 3113,
      "ocal": 3114,
      "Ġarch": 3115,
      "Ġpublished": 3116,
      "UR": 3117,
      "lements": 3118,
      "35": 3119,
      "Com": 3120,
      "la": 3121,
      "Ġcustomers": 3122,
      "ĠTw": 3123,
      "Ġconnect": 3124,
      "Ġvac": 3125,
      "ford": 3126,
      "Ġmother": 3127,
      "Ġhimself": 3128,
      "Ġ*/": 3129,
      "Ġdecl": 3130,
      "}.": 3131,
      "Ġplease": 3132,
      "Ġjud": 3133,
      "equation": 3134,
      "\")": 3135,
      "Ġdesigned": 3136,
      "irth": 3137,
      "Ġlearning": 3138,
      "sequ": 3139,
      "aves": 3140,
      "String": 3141,
      "Ġhol": 3142,
      "Ġattempt": 3143,
      "Ġsepar": 3144,
      "mathcal": 3145,
      "rie": 3146,
      "ements": 3147,
      "ĠAir": 3148,
      "Ġcard": 3149,
      "Ġinside": 3150,
      "Ġcand": 3151,
      "Ġinvolved": 3152,
      "Ġmedical": 3153,
      "Ġwoman": 3154,
      "oring": 3155,
      "iqu": 3156,
      "ÑĨ": 3157,
      "ĠGet": 3158,
      "Ġanalysis": 3159,
      "Ġvict": 3160,
      "Ġmodern": 3161,
      "Ġmach": 3162,
      "====": 3163,
      "lying": 3164,
      "Ġweeks": 3165,
      "rown": 3166,
      "ĠProf": 3167,
      "Ġexact": 3168,
      "Ġled": 3169,
      "ĠResearch": 3170,
      "Ġrelease": 3171,
      "mit": 3172,
      "ĠCollege": 3173,
      "Ġleave": 3174,
      "ĠInc": 3175,
      "resp": 3176,
      "ĠOp": 3177,
      "uit": 3178,
      "sec": 3179,
      "ornia": 3180,
      "Ġregion": 3181,
      "Ġadditional": 3182,
      "Ġinstead": 3183,
      "Ġhistor": 3184,
      "Ġpan": 3185,
      "Ġlost": 3186,
      "29": 3187,
      "Ġensure": 3188,
      "ING": 3189,
      "pir": 3190,
      "ressed": 3191,
      "orge": 3192,
      "erved": 3193,
      "28": 3194,
      "Ġcomplex": 3195,
      "idered": 3196,
      "Ġextra": 3197,
      "Ġchalleng": 3198,
      "Ġwall": 3199,
      "erc": 3200,
      "Ġstates": 3201,
      "Ġobtain": 3202,
      "Ġleading": 3203,
      "Ġaverage": 3204,
      "field": 3205,
      "Ġstri": 3206,
      "Ġregular": 3207,
      "Ġcampaign": 3208,
      "ming": 3209,
      "AD": 3210,
      "Ġ2022": 3211,
      "Ġpretty": 3212,
      "ado": 3213,
      "ĠCr": 3214,
      "Ġworth": 3215,
      "Ġweb": 3216,
      "Ġword": 3217,
      "aries": 3218,
      "oper": 3219,
      "Ġdetails": 3220,
      "Ġmeeting": 3221,
      "dom": 3222,
      "})": 3223,
      "Ġoptions": 3224,
      "rought": 3225,
      "gen": 3226,
      "Ġstandard": 3227,
      "ties": 3228,
      "iment": 3229,
      "Ġstudent": 3230,
      "Ġcelebr": 3231,
      "ĠGroup": 3232,
      "comes": 3233,
      "ser": 3234,
      "Ġdiv": 3235,
      "BC": 3236,
      "ĠMor": 3237,
      "Ġhor": 3238,
      "Ð¾ÑĢ": 3239,
      "wood": 3240,
      "ĠIN": 3241,
      "ĠJapan": 3242,
      "Ġlower": 3243,
      "Ġconduct": 3244,
      "ĠWhy": 3245,
      "Ġheav": 3246,
      "Ġ2009": 3247,
      "Ġsil": 3248,
      "ĠÐº": 3249,
      "Ġcross": 3250,
      "Ġanyone": 3251,
      "Ġplatform": 3252,
      "Ġemail": 3253,
      "aches": 3254,
      "Ġadminist": 3255,
      "Ġfight": 3256,
      "iber": 3257,
      "Ġvoid": 3258,
      "pm": 3259,
      "Ġdie": 3260,
      "Type": 3261,
      "sych": 3262,
      "Ġoil": 3263,
      "pite": 3264,
      "].": 3265,
      "Ġblog": 3266,
      "ications": 3267,
      "Ġhit": 3268,
      "ĠPaul": 3269,
      "Ġevidence": 3270,
      "haps": 3271,
      "ĠOut": 3272,
      "Ġprevent": 3273,
      "rang": 3274,
      "33": 3275,
      "Ġactivities": 3276,
      "unk": 3277,
      "Ġball": 3278,
      "ĠWash": 3279,
      "ĠCalifornia": 3280,
      "ulations": 3281,
      "ico": 3282,
      "ĠEuropean": 3283,
      "Ġautom": 3284,
      "uted": 3285,
      "ĠMod": 3286,
      "down": 3287,
      "atter": 3288,
      "Ġprojects": 3289,
      "Ġlatest": 3290,
      "Ġconsidered": 3291,
      "oul": 3292,
      "useum": 3293,
      "Ġeconomic": 3294,
      "Ġ29": 3295,
      "Val": 3296,
      "ĠEvery": 3297,
      "Ġtal": 3298,
      "^{\\": 3299,
      "Ġlevels": 3300,
      "isions": 3301,
      "Ġdrug": 3302,
      "pri": 3303,
      "Ġ2008": 3304,
      "Ġplayed": 3305,
      "Ġgra": 3306,
      "ĠInter": 3307,
      "Ġcause": 3308,
      "Ġreleased": 3309,
      "ĠOver": 3310,
      "Ġalbum": 3311,
      "Ġreceive": 3312,
      "ĠBritish": 3313,
      "Ġvalues": 3314,
      "Ġusers": 3315,
      "ĠRet": 3316,
      "ctions": 3317,
      "Ġplaying": 3318,
      "Ġcoun": 3319,
      "itation": 3320,
      "erve": 3321,
      "Ġreve": 3322,
      "Ġreading": 3323,
      "ĠÃł": 3324,
      "Ġband": 3325,
      "Ġbox": 3326,
      "Ġtitle": 3327,
      "ĠTechn": 3328,
      "chan": 3329,
      "see": 3330,
      "Ġmag": 3331,
      "Ġfather": 3332,
      "arc": 3333,
      "Ð¾Ð´": 3334,
      "ĠEast": 3335,
      "rs": 3336,
      "01": 3337,
      "Ġetc": 3338,
      "rench": 3339,
      "asons": 3340,
      "irit": 3341,
      "duc": 3342,
      "ĠMost": 3343,
      "Ġlanguage": 3344,
      "ĠSince": 3345,
      "Ġdraw": 3346,
      "Ġfast": 3347,
      "vey": 3348,
      "mission": 3349,
      "ara": 3350,
      "reng": 3351,
      "Ġblock": 3352,
      "ĠDist": 3353,
      "ĠStreet": 3354,
      "Ġcook": 3355,
      "ĠSk": 3356,
      "yond": 3357,
      "Ġdriv": 3358,
      "ĠPal": 3359,
      "ĠBusiness": 3360,
      "Ġmanufact": 3361,
      "Ar": 3362,
      "illing": 3363,
      "body": 3364,
      "Ġsold": 3365,
      "td": 3366,
      "Ġmatch": 3367,
      "Ġimmedi": 3368,
      "erous": 3369,
      "Ġwasn": 3370,
      "anch": 3371,
      "ĠCouncil": 3372,
      "OS": 3373,
      "Ġbroad": 3374,
      "Ġmultiple": 3375,
      "Ġnecessary": 3376,
      "oom": 3377,
      "ĠJames": 3378,
      "Ġsche": 3379,
      "Res": 3380,
      "Ġ)": 3381,
      "vis": 3382,
      "ependent": 3383,
      "Cl": 3384,
      "ĠCanada": 3385,
      "Ġgoal": 3386,
      "Ġcouple": 3387,
      "Ġ`": 3388,
      "idents": 3389,
      "Ġscreen": 3390,
      "html": 3391,
      ".'": 3392,
      "Ġdisplay": 3393,
      "alpha": 3394,
      "where": 3395,
      "Ġmention": 3396,
      "inter": 3397,
      "ography": 3398,
      "Ġability": 3399,
      "Ġsolution": 3400,
      "Ġsoftware": 3401,
      "ences": 3402,
      "Ġmovie": 3403,
      "ĠSub": 3404,
      "etic": 3405,
      "rael": 3406,
      "ixed": 3407,
      "}(": 3408,
      "ĠTHE": 3409,
      "estern": 3410,
      "Ġ!": 3411,
      "Ġwrite": 3412,
      "ĠOther": 3413,
      "ibrary": 3414,
      "imately": 3415,
      "Ġten": 3416,
      "zz": 3417,
      "Ġusually": 3418,
      "Ġmax": 3419,
      "Ġextrem": 3420,
      "Ġserious": 3421,
      "Ġinterview": 3422,
      "ĠSee": 3423,
      "Ġprograms": 3424,
      "do": 3425,
      "Ġparents": 3426,
      "Ġbehav": 3427,
      "Ġsyn": 3428,
      "ext": 3429,
      "LE": 3430,
      "Ġcapt": 3431,
      "Ð°Ð½": 3432,
      "Ġbrand": 3433,
      "ĠReview": 3434,
      "ville": 3435,
      "ĠGreat": 3436,
      "Ġbank": 3437,
      "Ġfelt": 3438,
      "Ġid": 3439,
      "Ġstru": 3440,
      "Ð¾Ð¼": 3441,
      "ĠFace": 3442,
      "verse": 3443,
      "Ġnature": 3444,
      "wise": 3445,
      "Ġlocated": 3446,
      "Ġprinc": 3447,
      "istry": 3448,
      "Ġsubs": 3449,
      "odes": 3450,
      "wor": 3451,
      "atal": 3452,
      "Ġcomment": 3453,
      "uate": 3454,
      "Ġannounced": 3455,
      "Ġhands": 3456,
      "Ġsurpr": 3457,
      "ĠPublic": 3458,
      "Ġdead": 3459,
      "unction": 3460,
      "Ġresources": 3461,
      "Ġsubst": 3462,
      "Ġideas": 3463,
      "ĠEven": 3464,
      "Ġwrong": 3465,
      "Ġgave": 3466,
      "Ġer": 3467,
      "ĠWashington": 3468,
      "Ġphone": 3469,
      "board": 3470,
      "Ġeffic": 3471,
      "Ġsales": 3472,
      "Ġcorrect": 3473,
      "mercial": 3474,
      "Ġplans": 3475,
      "Ð¾Ð»": 3476,
      "acing": 3477,
      "ares": 3478,
      "ened": 3479,
      "ĠRepublic": 3480,
      "Ġge": 3481,
      "Ġrout": 3482,
      "ĠJack": 3483,
      "ĠIndian": 3484,
      "ache": 3485,
      "vest": 3486,
      "Ġlooks": 3487,
      "ĠAnn": 3488,
      "hold": 3489,
      "ĠCong": 3490,
      "Ġquickly": 3491,
      "osing": 3492,
      "like": 3493,
      "ĠRich": 3494,
      "ĠPlease": 3495,
      "ĠGoogle": 3496,
      "ĠFil": 3497,
      "ords": 3498,
      "ought": 3499,
      "Ġprep": 3500,
      "ellow": 3501,
      "Ġdeveloped": 3502,
      "ilies": 3503,
      "Ġspeak": 3504,
      "pper": 3505,
      "bol": 3506,
      "Ġsqu": 3507,
      "Ġstar": 3508,
      "70": 3509,
      "ĠÐ´": 3510,
      "Ġsle": 3511,
      "Ġstories": 3512,
      "Ġstore": 3513,
      "Ġculture": 3514,
      "Ġbott": 3515,
      "ĠWhite": 3516,
      "ields": 3517,
      "Ð°Ð»": 3518,
      "Ġĉĉĉ": 3519,
      "Ġdrive": 3520,
      "Ġattention": 3521,
      "omb": 3522,
      "Ġpartners": 3523,
      "90": 3524,
      "ĠRober": 3525,
      "}_": 3526,
      "ĠAN": 3527,
      "ĠDan": 3528,
      "Ġgoes": 3529,
      "Ġrelig": 3530,
      "oto": 3531,
      "Ġshown": 3532,
      "Ġinteresting": 3533,
      "Ġmaintain": 3534,
      "Ġconsist": 3535,
      "Ġbal": 3536,
      "Ġthreat": 3537,
      "Ġpositive": 3538,
      "Ġwhose": 3539,
      "ĠGeneral": 3540,
      "umber": 3541,
      "ports": 3542,
      "lied": 3543,
      "onent": 3544,
      "ero": 3545,
      "Ġcenter": 3546,
      "rote": 3547,
      "Ġmid": 3548,
      "mas": 3549,
      "Ġdigital": 3550,
      "ĠProgram": 3551,
      "Ġcosts": 3552,
      "Ġkids": 3553,
      "tic": 3554,
      "Ġmessage": 3555,
      "Ġdevice": 3556,
      "ĠAccording": 3557,
      "Ġ60": 3558,
      "ĠEv": 3559,
      "Ph": 3560,
      "Ġknew": 3561,
      "men": 3562,
      "inated": 3563,
      "36": 3564,
      "~\\": 3565,
      "Ġboy": 3566,
      "mark": 3567,
      "just": 3568,
      "Ġstage": 3569,
      "Ġaward": 3570,
      "ĠFriday": 3571,
      "ĠMichael": 3572,
      "Ġcollection": 3573,
      "Ġdemon": 3574,
      "Ġeffective": 3575,
      "Ġready": 3576,
      "Ġmis": 3577,
      "Ġtowards": 3578,
      "ÑģÐº": 3579,
      "ĠEduc": 3580,
      "wide": 3581,
      "Ġbrought": 3582,
      "lam": 3583,
      "raz": 3584,
      "azing": 3585,
      "EO": 3586,
      "band": 3587,
      "Ġsn": 3588,
      "Ġparts": 3589,
      "Ġborn": 3590,
      "Ġap": 3591,
      "return": 3592,
      "Ġfit": 3593,
      "ĠBel": 3594,
      "ĠInt": 3595,
      "Ġmilitary": 3596,
      "\\\\": 3597,
      "Ġchoose": 3598,
      "ecutive": 3599,
      "Ġscient": 3600,
      "List": 3601,
      "ĠAlso": 3602,
      "Ġencour": 3603,
      "Ġsafety": 3604,
      "Ã¨": 3605,
      "ĠĠĠĠĠĠ": 3606,
      "44": 3607,
      "Ġ=>": 3608,
      "Ġsuff": 3609,
      "Ġdecided": 3610,
      "ynam": 3611,
      "ĠIS": 3612,
      "Ġsaying": 3613,
      "section": 3614,
      "Ġanswer": 3615,
      "isl": 3616,
      "Ġdoor": 3617,
      "class": 3618,
      "Tr": 3619,
      "ĠRec": 3620,
      "Ġfair": 3621,
      "Ġwide": 3622,
      "Ġsummer": 3623,
      "arily": 3624,
      "Ġsituation": 3625,
      "Ġmorning": 3626,
      "55": 3627,
      "Ġsafe": 3628,
      "Ġteac": 3629,
      "ĠVol": 3630,
      "Ġgives": 3631,
      "Ġstreng": 3632,
      "Ġcapital": 3633,
      "Ġdirectly": 3634,
      "ĠFe": 3635,
      "Ġdark": 3636,
      "Ġconcept": 3637,
      "Ġqual": 3638,
      "Ġgiving": 3639,
      "Ġaim": 3640,
      "Ġpopulation": 3641,
      "ĠWell": 3642,
      "Ġacqu": 3643,
      "bit": 3644,
      "log": 3645,
      "ĠRel": 3646,
      "Ġdetail": 3647,
      "IG": 3648,
      "Ġchoice": 3649,
      "itect": 3650,
      "istics": 3651,
      "ĠScience": 3652,
      "Ġpric": 3653,
      "ĠDevelop": 3654,
      "ummary": 3655,
      "ils": 3656,
      "Ġorganization": 3657,
      "rast": 3658,
      "Ġeyes": 3659,
      "Ġpark": 3660,
      "ĠIsrael": 3661,
      "mp": 3662,
      "Ġlocation": 3663,
      "ato": 3664,
      "Ġyourself": 3665,
      "Ġflow": 3666,
      "itiz": 3667,
      "ulated": 3668,
      "enty": 3669,
      "Ġliter": 3670,
      "ĠPort": 3671,
      "Ġhear": 3672,
      "Ġorganiz": 3673,
      "Ġscience": 3674,
      "ĠArch": 3675,
      "enge": 3676,
      "Ġerror": 3677,
      "urt": 3678,
      "ev": 3679,
      "Ġavoid": 3680,
      "Ġheard": 3681,
      "ĠBest": 3682,
      "Ġplant": 3683,
      "Ġnation": 3684,
      "Ġdownload": 3685,
      "ĠAustralia": 3686,
      "elta": 3687,
      "à¤": 3688,
      "100": 3689,
      "mitted": 3690,
      "Ġcam": 3691,
      "Ġforce": 3692,
      "Ġu": 3693,
      "ĠWork": 3694,
      "Ġeffects": 3695,
      "Ġones": 3696,
      "Ġround": 3697,
      "Ġchance": 3698,
      "Ġassociated": 3699,
      "Ġallows": 3700,
      "ho": 3701,
      "Ġcondition": 3702,
      "ey": 3703,
      "Ġnull": 3704,
      "UT": 3705,
      "37": 3706,
      "uman": 3707,
      "IR": 3708,
      "Ġstudies": 3709,
      "comp": 3710,
      "ambda": 3711,
      "Ġfrequ": 3712,
      "ĠYear": 3713,
      "38": 3714,
      "Ġter": 3715,
      "Ġinnov": 3716,
      "Ġplayer": 3717,
      "CC": 3718,
      "Ġclub": 3719,
      "iding": 3720,
      "Ġhappy": 3721,
      "Ġfeature": 3722,
      "Ġremember": 3723,
      "ĠMart": 3724,
      "Ġturned": 3725,
      "Ġprem": 3726,
      "ĠFound": 3727,
      "Ġstatement": 3728,
      "Ġcandid": 3729,
      "Ġlack": 3730,
      "Ġoccur": 3731,
      "rial": 3732,
      "Ġdat": 3733,
      "Ġdirector": 3734,
      "##": 3735,
      "Ġbillion": 3736,
      "ĠBoard": 3737,
      "ĠTod": 3738,
      "Ġlic": 3739,
      "Ġspeed": 3740,
      "Ġstring": 3741,
      "Ġproviding": 3742,
      "ios": 3743,
      "ĠWed": 3744,
      "ĠCompany": 3745,
      "value": 3746,
      "Ġblood": 3747,
      "Ġsec": 3748,
      "Ġdu": 3749,
      "ĠPhil": 3750,
      "bt": 3751,
      "Ġphysical": 3752,
      "ago": 3753,
      "aughter": 3754,
      "Ġtrust": 3755,
      "Ġfem": 3756,
      "Ġindic": 3757,
      "arr": 3758,
      "Ġtypes": 3759,
      "Ġseek": 3760,
      "Ġgets": 3761,
      "round": 3762,
      "change": 3763,
      "ca": 3764,
      "Ġarriv": 3765,
      "ĠDel": 3766,
      "Ġri": 3767,
      "Cont": 3768,
      "no": 3769,
      "Ġhous": 3770,
      "force": 3771,
      "ipment": 3772,
      "ĠMany": 3773,
      "ishing": 3774,
      "Ġbud": 3775,
      "more": 3776,
      "box": 3777,
      "Ġoption": 3778,
      "ĠThom": 3779,
      "Ġswe": 3780,
      "48": 3781,
      "Ġschools": 3782,
      "Data": 3783,
      "ĠMem": 3784,
      "Ġskills": 3785,
      "ube": 3786,
      "ĠDirector": 3787,
      "],": 3788,
      "Ġstra": 3789,
      "Ð¾Ð³": 3790,
      "ĠInstitute": 3791,
      "ĠSunday": 3792,
      "ĠSa": 3793,
      "eters": 3794,
      "Ġassess": 3795,
      "isf": 3796,
      "Ġil": 3797,
      "Ġfeed": 3798,
      "lick": 3799,
      "Ġneigh": 3800,
      "ĠFacebook": 3801,
      "ĠÐ½Ð°": 3802,
      "bre": 3803,
      "Ġenter": 3804,
      "Ġachieve": 3805,
      "Ġstructure": 3806,
      "ĠMac": 3807,
      "ĠPress": 3808,
      "Ġfa": 3809,
      "ĠGreen": 3810,
      "ĠItal": 3811,
      "Ġcomfort": 3812,
      "Ġgas": 3813,
      "vin": 3814,
      "Ġsal": 3815,
      "za": 3816,
      "Ġearn": 3817,
      "Ġprogress": 3818,
      "Ġeasily": 3819,
      "Ġslow": 3820,
      "ĠSol": 3821,
      "apter": 3822,
      "mon": 3823,
      "yd": 3824,
      "ĠBer": 3825,
      "ĠSatur": 3826,
      "Ġdog": 3827,
      "ĠFrench": 3828,
      "Ġmeasure": 3829,
      "Ġ2007": 3830,
      "Ġsuccessful": 3831,
      "Ġconvers": 3832,
      "Ġhighly": 3833,
      "Ġincreasing": 3834,
      "ĠPlay": 3835,
      "ĠJournal": 3836,
      "ros": 3837,
      "ĠSur": 3838,
      "Ġdifference": 3839,
      "ĠAssociation": 3840,
      "aby": 3841,
      "Ġtemper": 3842,
      "Ġregist": 3843,
      "igned": 3844,
      "ategy": 3845,
      "Ġ31": 3846,
      "Ġ==": 3847,
      "Ġcredit": 3848,
      "Ġtrade": 3849,
      "rief": 3850,
      "iation": 3851,
      "ĠTex": 3852,
      "Ġnovel": 3853,
      "list": 3854,
      "Ġwrote": 3855,
      "Ġsun": 3856,
      "Ġlimited": 3857,
      "iant": 3858,
      "Ġsurv": 3859,
      "Ġvariety": 3860,
      "ano": 3861,
      "ĠTom": 3862,
      "Ġincreased": 3863,
      "Ġtried": 3864,
      "type": 3865,
      "Ġfarm": 3866,
      "met": 3867,
      "Ġinform": 3868,
      "bon": 3869,
      "Ġwel": 3870,
      "param": 3871,
      "Ġded": 3872,
      "ĠAny": 3873,
      "ĠService": 3874,
      "Ġang": 3875,
      "ste": 3876,
      "Ġdisease": 3877,
      "IP": 3878,
      "Un": 3879,
      "Ġfirm": 3880,
      "ĠSpec": 3881,
      "bu": 3882,
      "Ġfamilies": 3883,
      "Ġrecommend": 3884,
      "Ġsen": 3885,
      "Ġimag": 3886,
      "Ġnames": 3887,
      "IM": 3888,
      "Ġsem": 3889,
      "ibly": 3890,
      "Ġdemand": 3891,
      "Ġrespond": 3892,
      "imal": 3893,
      "Ġhuge": 3894,
      "ĠSam": 3895,
      "ĠUnder": 3896,
      "venue": 3897,
      "Ġbus": 3898,
      "EM": 3899,
      "Ġnamed": 3900,
      "Ġweight": 3901,
      "Ġlooked": 3902,
      "Ġparticularly": 3903,
      "ĠHall": 3904,
      "Ġdegree": 3905,
      "lands": 3906,
      "Ġactivity": 3907,
      "Ġcomputer": 3908,
      "ĠChurch": 3909,
      "Ġthinking": 3910,
      "rab": 3911,
      "mu": 3912,
      "39": 3913,
      "aught": 3914,
      "Ġnearly": 3915,
      "Ġpiece": 3916,
      "OL": 3917,
      "igma": 3918,
      "Ġroll": 3919,
      "Ġreach": 3920,
      "34": 3921,
      "ĠGold": 3922,
      "ancy": 3923,
      "ÑĢÐµ": 3924,
      "encies": 3925,
      "ĠOffice": 3926,
      "ĠGood": 3927,
      "Ġrace": 3928,
      "ĠMat": 3929,
      "75": 3930,
      "hest": 3931,
      "Ġmer": 3932,
      "Ġitems": 3933,
      "Ġcool": 3934,
      "Ġcentury": 3935,
      "Ġfalse": 3936,
      "Ġbenefits": 3937,
      "ka": 3938,
      "Ġindividuals": 3939,
      "Ġmeaning": 3940,
      "undred": 3941,
      "Ġemb": 3942,
      "itude": 3943,
      "Ġcateg": 3944,
      "aled": 3945,
      "Ġreflect": 3946,
      "Ġgrowing": 3947,
      "uration": 3948,
      "Ġunderstanding": 3949,
      "ĠÂ£": 3950,
      "Ġbeginning": 3951,
      "icip": 3952,
      "Ġsometimes": 3953,
      "ÑĪ": 3954,
      "orage": 3955,
      "ius": 3956,
      "Ġbeyond": 3957,
      "Ġsort": 3958,
      "En": 3959,
      "Ġpull": 3960,
      "05": 3961,
      "ĠPeople": 3962,
      "Ġcompletely": 3963,
      "den": 3964,
      "Ñİ": 3965,
      "ĠEngland": 3966,
      "ĠAlthough": 3967,
      "Ġmodels": 3968,
      "ĠSaturday": 3969,
      "64": 3970,
      "date": 3971,
      "View": 3972,
      "annel": 3973,
      "Ġwife": 3974,
      "iance": 3975,
      "ken": 3976,
      "Ġtraditional": 3977,
      "osition": 3978,
      "itz": 3979,
      "Ġthous": 3980,
      "Ġrefer": 3981,
      "Ġclick": 3982,
      "Ġearlier": 3983,
      "Ġmount": 3984,
      "ĠDef": 3985,
      "Ġfully": 3986,
      "Ġpromot": 3987,
      "Ġaltern": 3988,
      "eria": 3989,
      "Ġsociety": 3990,
      "Ġwood": 3991,
      "ults": 3992,
      "Ġnumbers": 3993,
      "ĠST": 3994,
      "ĠTop": 3995,
      "net": 3996,
      "Ġstarting": 3997,
      "Ġcalc": 3998,
      "Ġgrand": 3999,
      "Ġ%": 4000,
      "cher": 4001,
      "ĠSupp": 4002,
      "Ġspent": 4003,
      ")\\": 4004,
      "Ġclients": 4005,
      "ĠDemocr": 4006,
      "Ġlines": 4007,
      "><": 4008,
      "ously": 4009,
      "OM": 4010,
      "Ġload": 4011,
      "Ġtouch": 4012,
      "Ġbirth": 4013,
      "ester": 4014,
      "ech": 4015,
      "Ġimages": 4016,
      "Ġrock": 4017,
      "Ġsell": 4018,
      "cause": 4019,
      "Ġcivil": 4020,
      "Ġsave": 4021,
      "Ġexcell": 4022,
      "ston": 4023,
      "ĠWind": 4024,
      "ĠGovernment": 4025,
      "Ġexcept": 4026,
      "ĠMary": 4027,
      "Ġdro": 4028,
      "Ġcustomer": 4029,
      "Ġplaces": 4030,
      "Ġbasis": 4031,
      "ĠSing": 4032,
      "data": 4033,
      "Ġlargest": 4034,
      "Ġemployees": 4035,
      "ĠAfrica": 4036,
      "Ġnote": 4037,
      "ĠLife": 4038,
      "ĠJew": 4039,
      "Ġult": 4040,
      "Ġcontext": 4041,
      "VID": 4042,
      "Ġallowed": 4043,
      "rep": 4044,
      "Ġgreen": 4045,
      "Ġmyself": 4046,
      "Ġgovern": 4047,
      "Ġchanged": 4048,
      "ĠRem": 4049,
      "yp": 4050,
      "'.": 4051,
      "ĠMusic": 4052,
      "Ġparam": 4053,
      "rian": 4054,
      "Ġprec": 4055,
      "Ġstrateg": 4056,
      "Ġnormal": 4057,
      "Ġlaws": 4058,
      "izes": 4059,
      "amma": 4060,
      "ĠAbout": 4061,
      "_\\": 4062,
      "ĠMag": 4063,
      "berg": 4064,
      "Ġcarry": 4065,
      "Ġreports": 4066,
      "Ġcompared": 4067,
      "Ġdied": 4068,
      "ronic": 4069,
      "pi": 4070,
      "Ġdescribed": 4071,
      "Ġfinally": 4072,
      "ocks": 4073,
      "Ġsolutions": 4074,
      "ĠAtt": 4075,
      "Ġcast": 4076,
      "Ġserved": 4077,
      "includ": 4078,
      "ĠMal": 4079,
      "ĠFam": 4080,
      "rey": 4081,
      "ĠAngel": 4082,
      "hem": 4083,
      "ĠServices": 4084,
      "Ġfine": 4085,
      "></": 4086,
      "Ġhop": 4087,
      "ĠMonday": 4088,
      "Ġuses": 4089,
      "Ġmechan": 4090,
      "Ġcontinu": 4091,
      "Ġconstruction": 4092,
      "Ġcollabor": 4093,
      "itar": 4094,
      "NA": 4095,
      "gl": 4096,
      "ula": 4097,
      "iers": 4098,
      "ĠClass": 4099,
      "!\"": 4100,
      "ĠEr": 4101,
      "lear": 4102,
      "ĠDuring": 4103,
      "ĠLeg": 4104,
      "Ġclin": 4105,
      "Ġappropri": 4106,
      "ocol": 4107,
      "Ġthrow": 4108,
      "Ġsust": 4109,
      "Ġremain": 4110,
      "inn": 4111,
      "Ġinvestment": 4112,
      "Ġpurpose": 4113,
      "acity": 4114,
      "fo": 4115,
      "Ġtransport": 4116,
      "Ġapply": 4117,
      "____": 4118,
      "itable": 4119,
      "Ġcopy": 4120,
      "ĠAlex": 4121,
      "Ġvan": 4122,
      "To": 4123,
      "Ġmaterials": 4124,
      "ĠBre": 4125,
      "Ġmoved": 4126,
      "Ġbusinesses": 4127,
      "Ġmoving": 4128,
      "Ġ\\\\": 4129,
      "Ġvoice": 4130,
      "PS": 4131,
      "code": 4132,
      "Ġactive": 4133,
      "Ġ**": 4134,
      "')": 4135,
      "esc": 4136,
      "Ġstock": 4137,
      "UL": 4138,
      "ellig": 4139,
      "icon": 4140,
      "ĠAM": 4141,
      "Ġdaily": 4142,
      "ĠChristian": 4143,
      "irection": 4144,
      "ĠCommission": 4145,
      "Ġfloor": 4146,
      "item": 4147,
      "CH": 4148,
      "Ġfederal": 4149,
      "ĠCur": 4150,
      "Ġinsurance": 4151,
      "ternal": 4152,
      "house": 4153,
      "Ġ{\\": 4154,
      "Ġsend": 4155,
      "../": 4156,
      "Ġcommercial": 4157,
      "ÑĢÐ¸": 4158,
      "var": 4159,
      "ĠĠĠĠĠĠĠĠĠĠĠĠĠĠĠĠĠĠĠĠĠĠĠĠĠĠĠĠĠĠĠĠ": 4160,
      "ĠChild": 4161,
      "Ġexpert": 4162,
      "ĠTexas": 4163,
      "estival": 4164,
      "Ġgold": 4165,
      "Ġrules": 4166,
      "ĠEducation": 4167,
      "ĠCam": 4168,
      "ĠFlor": 4169,
      "ulate": 4170,
      "hips": 4171,
      "respond": 4172,
      "place": 4173,
      "Ġteams": 4174,
      "Ġpaid": 4175,
      "yt": 4176,
      "icine": 4177,
      "ĠMil": 4178,
      "oyal": 4179,
      "Ġcreating": 4180,
      "Ġeval": 4181,
      "ĠBank": 4182,
      "inese": 4183,
      "Ġeight": 4184,
      "Ġplanning": 4185,
      "ĠGeorge": 4186,
      "ĠPlan": 4187,
      "mar": 4188,
      "Ġtim": 4189,
      "point": 4190,
      "Ġ?": 4191,
      "Ġtransfer": 4192,
      "ĠSl": 4193,
      "ĠFore": 4194,
      "arrow": 4195,
      "Ġopportunities": 4196,
      "ĠMet": 4197,
      "ĠThanks": 4198,
      "Ġlength": 4199,
      "Ġfollowed": 4200,
      "Ġcells": 4201,
      "Ġexactly": 4202,
      "ĠStr": 4203,
      "Sh": 4204,
      "Ġcharacters": 4205,
      "ona": 4206,
      "Ġalthough": 4207,
      "Ġstatus": 4208,
      "ÑĤÐ°": 4209,
      "ĠForm": 4210,
      "Ġvirt": 4211,
      "ancing": 4212,
      "olf": 4213,
      "ĠHistory": 4214,
      "state": 4215,
      "Ġemot": 4216,
      "ĠBen": 4217,
      "ĠSal": 4218,
      "ENT": 4219,
      "ĠLou": 4220,
      "Ġmobile": 4221,
      "Ġlif": 4222,
      "ÐµÐ»": 4223,
      "Ġord": 4224,
      "Ġdouble": 4225,
      "Ġestablished": 4226,
      "Ġeffort": 4227,
      "You": 4228,
      "ĠRob": 4229,
      "itely": 4230,
      "Ġworkers": 4231,
      "ĠCap": 4232,
      "Ġcorpor": 4233,
      "rupt": 4234,
      "Ġdream": 4235,
      "gu": 4236,
      "Ġvill": 4237,
      "49": 4238,
      "Ġ2006": 4239,
      "kn": 4240,
      "=\\": 4241,
      "ĠJo": 4242,
      "IV": 4243,
      "Ġtools": 4244,
      "31": 4245,
      "Ġsurface": 4246,
      "Ġestim": 4247,
      "ĠLast": 4248,
      "ĠDec": 4249,
      "Ġcontain": 4250,
      "ĠAv": 4251,
      "iring": 4252,
      "Ð¶": 4253,
      "\");": 4254,
      "Ġamazing": 4255,
      "ĠPM": 4256,
      "Ġexpand": 4257,
      "igr": 4258,
      "Ġstrugg": 4259,
      "irus": 4260,
      "Ġaspect": 4261,
      "47": 4262,
      "Ġpattern": 4263,
      "Ġple": 4264,
      "aling": 4265,
      "ĠTwo": 4266,
      "Ð¾Ð½": 4267,
      "Ġconsult": 4268,
      "Ġbound": 4269,
      "Ġpressure": 4270,
      "Ġrestaur": 4271,
      "Ġinterested": 4272,
      "ervation": 4273,
      "Ġcollege": 4274,
      "ĠSocial": 4275,
      "ander": 4276,
      "Ġfresh": 4277,
      "ĠOh": 4278,
      "Ġmovement": 4279,
      "Ġapplications": 4280,
      "Ġkit": 4281,
      "Ġinitial": 4282,
      "rend": 4283,
      "Ġclient": 4284,
      "Ġseven": 4285,
      "ae": 4286,
      "Ġdemonstr": 4287,
      "Ġepis": 4288,
      "Ġaffect": 4289,
      "ĠBill": 4290,
      "Ġanti": 4291,
      "atively": 4292,
      "igation": 4293,
      "Ġhundred": 4294,
      "ii": 4295,
      "ustr": 4296,
      "ĠÐ·": 4297,
      "Ġefforts": 4298,
      "Ġfans": 4299,
      "ĠConst": 4300,
      "ĠJer": 4301,
      "Ġnice": 4302,
      "Ġmethods": 4303,
      "porary": 4304,
      "Ġstream": 4305,
      "Ġshoot": 4306,
      "ifying": 4307,
      "Ġdeliver": 4308,
      "Ġquarter": 4309,
      "ĠUSA": 4310,
      "Ġgreater": 4311,
      "DA": 4312,
      "Ġcert": 4313,
      "Ġfavorite": 4314,
      "Ġsatisf": 4315,
      "Col": 4316,
      "ĠFranc": 4317,
      "He": 4318,
      "Ġequipment": 4319,
      "Ġalone": 4320,
      "ĠList": 4321,
      "Ġmarketing": 4322,
      "Ġorigin": 4323,
      "Ġattract": 4324,
      "65": 4325,
      "arden": 4326,
      "ya": 4327,
      "Ġforeign": 4328,
      "Ã³n": 4329,
      "ĠÐ¼": 4330,
      "Ġcertainly": 4331,
      "Ġfeet": 4332,
      "Ġexhib": 4333,
      "istan": 4334,
      "Ġsho": 4335,
      "isation": 4336,
      "}^": 4337,
      "Ġspect": 4338,
      "Ġimpl": 4339,
      "Ġconstant": 4340,
      "Ġrequirements": 4341,
      "Ġproced": 4342,
      "Ġopin": 4343,
      "but": 4344,
      "Ġsch": 4345,
      "onents": 4346,
      "ĠStar": 4347,
      "ĠAut": 4348,
      "ĠPub": 4349,
      "Ã¥": 4350,
      "UN": 4351,
      "ĠCongress": 4352,
      "mm": 4353,
      "ÅĤ": 4354,
      "ĠOF": 4355,
      "ĠManagement": 4356,
      "ampions": 4357,
      "Ġcancer": 4358,
      "Ġcentral": 4359,
      "ologies": 4360,
      "Ã©s": 4361,
      "string": 4362,
      "ĠProfess": 4363,
      "top": 4364,
      "akers": 4365,
      "ĠAP": 4366,
      "Ġpassed": 4367,
      "ĠCommittee": 4368,
      "iller": 4369,
      "Ġhappened": 4370,
      "Ġspirit": 4371,
      "Ġmiddle": 4372,
      "Ġcontinued": 4373,
      "Value": 4374,
      "icks": 4375,
      "Ġskin": 4376,
      "ĠDown": 4377,
      "Ġshot": 4378,
      "////": 4379,
      "term": 4380,
      "uesday": 4381,
      "edom": 4382,
      "Ġfol": 4383,
      "ĠThurs": 4384,
      "ĠData": 4385,
      "ĠMiss": 4386,
      "Ġhospital": 4387,
      "ĠMer": 4388,
      "sey": 4389,
      "agon": 4390,
      "Ġcritical": 4391,
      "Ġcommunities": 4392,
      "reci": 4393,
      "Ġelements": 4394,
      "ĠOnce": 4395,
      "Ġwants": 4396,
      "Ġfear": 4397,
      "Ġexisting": 4398,
      "ota": 4399,
      "ĠChinese": 4400,
      "ĠBig": 4401,
      "ĠRoad": 4402,
      "ĠFrance": 4403,
      "ĠÐ³": 4404,
      "gar": 4405,
      "Ġelectric": 4406,
      "Ġ195": 4407,
      "Ġoverall": 4408,
      "Ġvehicle": 4409,
      "********": 4410,
      "ait": 4411,
      "Ġhour": 4412,
      "ĠToday": 4413,
      "Ġwarm": 4414,
      "gs": 4415,
      "ria": 4416,
      "Ġur": 4417,
      "ella": 4418,
      "ĠWho": 4419,
      "ĠCamp": 4420,
      "Ġmap": 4421,
      "ferences": 4422,
      "cel": 4423,
      "Ġserve": 4424,
      "Ġlimit": 4425,
      "95": 4426,
      "Ġappoint": 4427,
      "AA": 4428,
      "----------------": 4429,
      "ĠRobert": 4430,
      "ĠVis": 4431,
      "ĠFree": 4432,
      "Ġbur": 4433,
      "Ġprimary": 4434,
      "atus": 4435,
      "lo": 4436,
      "Ġannual": 4437,
      "ĠProject": 4438,
      "lor": 4439,
      "rim": 4440,
      "Ġcharge": 4441,
      "ĠHam": 4442,
      "Ġclimate": 4443,
      "Ġleader": 4444,
      "Ġmicro": 4445,
      "vention": 4446,
      "ĠHel": 4447,
      "azon": 4448,
      "Ġinput": 4449,
      "Ġchurch": 4450,
      "Ġsetting": 4451,
      "Ġestablish": 4452,
      "ouble": 4453,
      "Re": 4454,
      "Ġiniti": 4455,
      "iny": 4456,
      "Ġbill": 4457,
      "Ġspread": 4458,
      "dis": 4459,
      "Ġdang": 4460,
      "Ġsequ": 4461,
      "miss": 4462,
      "ĠDet": 4463,
      "Ġpen": 4464,
      "Ġhelped": 4465,
      "Ġpolic": 4466,
      "SS": 4467,
      "ĠTime": 4468,
      "Ġadvant": 4469,
      "Ġoperations": 4470,
      "Ġrates": 4471,
      "Ġvote": 4472,
      "This": 4473,
      "ashion": 4474,
      "Ġjournal": 4475,
      "Ġapprox": 4476,
      "ĠChristmas": 4477,
      "Ġbenefit": 4478,
      "ĠLike": 4479,
      "Ġhair": 4480,
      "Ġtherefore": 4481,
      "04": 4482,
      "ĠCare": 4483,
      "andom": 4484,
      "Ġconnection": 4485,
      "Ġmagn": 4486,
      "Ġbrother": 4487,
      "Ġmulti": 4488,
      "Ġpatient": 4489,
      "ette": 4490,
      "rix": 4491,
      "ĠDevelopment": 4492,
      "II": 4493,
      "Ġimmediately": 4494,
      "Ġresponsible": 4495,
      "ĠSmith": 4496,
      "olic": 4497,
      "Ġpeace": 4498,
      "Ġperhaps": 4499,
      "essage": 4500,
      "Ġcry": 4501,
      "Ġsites": 4502,
      "Ġpresented": 4503,
      "Ġcas": 4504,
      "Ġshared": 4505,
      "Ġpicture": 4506,
      "Ġcru": 4507,
      "Ġstatic": 4508,
      "ĠJes": 4509,
      "Ġblue": 4510,
      "Ġbudget": 4511,
      "nesday": 4512,
      "Ġstuff": 4513,
      "-\\": 4514,
      "ĠTuesday": 4515,
      "ĠQue": 4516,
      "Ġquant": 4517,
      "care": 4518,
      "ĠSu": 4519,
      "ĠBecause": 4520,
      "Ġunit": 4521,
      "uty": 4522,
      "Ġeconomy": 4523,
      "inner": 4524,
      "ĠBay": 4525,
      "07": 4526,
      "ulture": 4527,
      "88": 4528,
      "path": 4529,
      "Ġcitiz": 4530,
      "ĠThursday": 4531,
      "Ġproduced": 4532,
      "Ġelement": 4533,
      "Ġabsol": 4534,
      "ocation": 4535,
      "word": 4536,
      "hens": 4537,
      "arant": 4538,
      "Ġpsych": 4539,
      "ĠĠĠĠĠĠĠĠĠĠĠĠĠĠĠĠĠĠĠĠĠĠĠ": 4540,
      "];": 4541,
      "Ġsale": 4542,
      "pre": 4543,
      "Ġremains": 4544,
      "Ġtalking": 4545,
      "Ġpow": 4546,
      "inate": 4547,
      "ĠWil": 4548,
      "ĠUN": 4549,
      "ĠBi": 4550,
      "Ġlab": 4551,
      "actions": 4552,
      "levant": 4553,
      "Ġbasic": 4554,
      "Ġfigure": 4555,
      "Ġpoor": 4556,
      "phi": 4557,
      "Ġtick": 4558,
      "Ġ2000": 4559,
      "ady": 4560,
      "ourney": 4561,
      "ĠMo": 4562,
      "ĠSom": 4563,
      "ĠEach": 4564,
      "06": 4565,
      "Ġchem": 4566,
      "Ġcouldn": 4567,
      "RA": 4568,
      "eed": 4569,
      "Ġbackground": 4570,
      "ĠMicro": 4571,
      "ĠVir": 4572,
      "Ġ2005": 4573,
      "pective": 4574,
      "eared": 4575,
      "($": 4576,
      "Ġletter": 4577,
      "Ġjoin": 4578,
      "Ġreduce": 4579,
      "ĠFlorida": 4580,
      "Ġexerc": 4581,
      "}_{": 4582,
      "Ġhelps": 4583,
      "array": 4584,
      "mathbb": 4585,
      "Ġgoals": 4586,
      "An": 4587,
      "ĠCOVID": 4588,
      "Ġmaybe": 4589,
      "Ġlarger": 4590,
      "Ġindependent": 4591,
      "rapy": 4592,
      "Ġir": 4593,
      "ework": 4594,
      "ĠWilliam": 4595,
      "46": 4596,
      "ĠMad": 4597,
      "Ġowners": 4598,
      "Ġgraph": 4599,
      "Ġfeeling": 4600,
      "ĠWomen": 4601,
      "Ġpurchase": 4602,
      "Ġreasons": 4603,
      "Ġmachine": 4604,
      "imb": 4605,
      "Ġtrip": 4606,
      "Ġcorrespond": 4607,
      "Ġacadem": 4608,
      "Ġchallenge": 4609,
      "anned": 4610,
      "Ġsecret": 4611,
      "Ġthus": 4612,
      "ĠWednesday": 4613,
      "atever": 4614,
      "Ġmill": 4615,
      "Ġenh": 4616,
      "Ġstraight": 4617,
      "Ġdoll": 4618,
      "TM": 4619,
      "rive": 4620,
      "Ġeth": 4621,
      "Ġgrant": 4622,
      "edy": 4623,
      "osh": 4624,
      "Ġstrategy": 4625,
      "ĠMinister": 4626,
      "Ġhref": 4627,
      "ĠNext": 4628,
      "Ġoffered": 4629,
      "Ġahead": 4630,
      "Ġ35": 4631,
      "ĠSociety": 4632,
      "Ġ80": 4633,
      "tered": 4634,
      "vere": 4635,
      "Ġlegisl": 4636,
      "Ġmission": 4637,
      "ĠJul": 4638,
      "Ġproduce": 4639,
      "ĠString": 4640,
      "arent": 4641,
      "Ġscen": 4642,
      "Im": 4643,
      "ooth": 4644,
      "ĠScott": 4645,
      "aren": 4646,
      "Ġhus": 4647,
      "eline": 4648,
      "Ġinstance": 4649,
      "Ġwish": 4650,
      "Ġaccur": 4651,
      "Ġelection": 4652,
      "Ġsurround": 4653,
      "Sc": 4654,
      "Ġgun": 4655,
      "const": 4656,
      "ĠRiver": 4657,
      "Ġincome": 4658,
      "soft": 4659,
      "Ġentry": 4660,
      "Ġcompleted": 4661,
      "roy": 4662,
      "Ġagreement": 4663,
      "works": 4664,
      "As": 4665,
      "Ġmur": 4666,
      "well": 4667,
      "Ġwait": 4668,
      "Ġcommit": 4669,
      "Ġgone": 4670,
      "oma": 4671,
      "Ġpowerful": 4672,
      "ĠEconom": 4673,
      "Ġspot": 4674,
      "78": 4675,
      "outhern": 4676,
      "http": 4677,
      "width": 4678,
      "ĠRock": 4679,
      "Ġmemory": 4680,
      "ĠFoundation": 4681,
      "Ġpet": 4682,
      "Ġpurs": 4683,
      "OD": 4684,
      "09": 4685,
      "ĠTwitter": 4686,
      "Ġwild": 4687,
      "ĠHot": 4688,
      "Ġfig": 4689,
      "Ġorganizations": 4690,
      "Ġcontroll": 4691,
      "Se": 4692,
      "Ġdirection": 4693,
      "Ġpredict": 4694,
      "Ġobvious": 4695,
      "ructure": 4696,
      "ĠÂ»": 4697,
      "Ġpages": 4698,
      "Ġopening": 4699,
      "ĠĠĊ": 4700,
      "ĉĉĉĉ": 4701,
      "Ġtransl": 4702,
      "cell": 4703,
      "Ġtoward": 4704,
      "Ġstation": 4705,
      "ĠLand": 4706,
      "gn": 4707,
      "Ġfootball": 4708,
      "Ġsleep": 4709,
      "Ġtruth": 4710,
      "Ġsports": 4711,
      "Ġcomments": 4712,
      "Ġsupply": 4713,
      "ĠClub": 4714,
      "Ġactual": 4715,
      "ĠMex": 4716,
      "Ġlaun": 4717,
      "with": 4718,
      "ĠMarket": 4719,
      "Ġrepe": 4720,
      "perty": 4721,
      "Ġsmart": 4722,
      "Ġartist": 4723,
      "Ġscene": 4724,
      "using": 4725,
      "ipe": 4726,
      "OC": 4727,
      "Ġeye": 4728,
      "Ġexcellent": 4729,
      "ruit": 4730,
      "eds": 4731,
      "Ġsav": 4732,
      "print": 4733,
      "ĠSuper": 4734,
      "ĠLat": 4735,
      "Ġhighest": 4736,
      "bert": 4737,
      "ĠDi": 4738,
      "Ġtrain": 4739,
      "ĠOpen": 4740,
      "Ob": 4741,
      "ivery": 4742,
      "ĠTur": 4743,
      "ĠAnother": 4744,
      "ĠWhe": 4745,
      "Ġtheory": 4746,
      "ĠElect": 4747,
      "08": 4748,
      "Ġparties": 4749,
      "orial": 4750,
      "ĠJud": 4751,
      "Ġclaims": 4752,
      "Ġwindow": 4753,
      "iques": 4754,
      "standing": 4755,
      "abase": 4756,
      "Ġchallenges": 4757,
      "IA": 4758,
      "ĠGerman": 4759,
      "Ġspend": 4760,
      "ĠWeb": 4761,
      "known": 4762,
      "Ġdepend": 4763,
      "Ġharm": 4764,
      "02": 4765,
      "Ġreality": 4766,
      "Ġmiles": 4767,
      "ĠÂ«": 4768,
      "Ġprop": 4769,
      "grad": 4770,
      "Ġunf": 4771,
      "rad": 4772,
      "ĠPeter": 4773,
      "Ġsector": 4774,
      "Ġvalid": 4775,
      "ĠDistrict": 4776,
      "Ġfactors": 4777,
      "ini": 4778,
      "Ġdefined": 4779,
      "ĠDesign": 4780,
      "Ġlaunch": 4781,
      "ĠAcadem": 4782,
      "Ġdim": 4783,
      "Ġagree": 4784,
      "ĠIns": 4785,
      "ĠUnion": 4786,
      "ĠLeague": 4787,
      "Ġappropriate": 4788,
      "ĠHuman": 4789,
      "Ġheat": 4790,
      "Ġglass": 4791,
      "ĠCarol": 4792,
      "iling": 4793,
      "ĠYes": 4794,
      "Ġrat": 4795,
      "lambda": 4796,
      "ĠFrank": 4797,
      "aming": 4798,
      "ĠMuseum": 4799,
      "Ġrecords": 4800,
      "Ġnotice": 4801,
      "Ġhar": 4802,
      "Ġregarding": 4803,
      "Ġplus": 4804,
      "ĠAward": 4805,
      "Ġdevices": 4806,
      "ĠSpe": 4807,
      "oms": 4808,
      "Ġattend": 4809,
      "Ġprofession": 4810,
      "Ġappreci": 4811,
      "Ġpaint": 4812,
      "Ġmix": 4813,
      "ĠTimes": 4814,
      "Ġjobs": 4815,
      "emic": 4816,
      "ĠSil": 4817,
      "ki": 4818,
      "ĠÐ±": 4819,
      "Ġwat": 4820,
      "ĠCentral": 4821,
      "ĠAfrican": 4822,
      "ĠTor": 4823,
      "Ġshowed": 4824,
      "BA": 4825,
      "antic": 4826,
      "test": 4827,
      "ĠBack": 4828,
      "Ġarchitect": 4829,
      "Ġdistribution": 4830,
      "ÑĤÐ¸": 4831,
      "ĠLos": 4832,
      "ĠChic": 4833,
      "03": 4834,
      "file": 4835,
      "semb": 4836,
      "azine": 4837,
      "ĠDiv": 4838,
      "pan": 4839,
      "Ġerr": 4840,
      "ĠCommunity": 4841,
      "Ġforms": 4842,
      "ĠMa": 4843,
      "Ġaudience": 4844,
      "ĠRussia": 4845,
      "OP": 4846,
      "Ġrule": 4847,
      "Ġoutput": 4848,
      "rd": 4849,
      "Ġdisapp": 4850,
      "Ġassum": 4851,
      "iled": 4852,
      "ĠThomas": 4853,
      "osis": 4854,
      "lis": 4855,
      "Ġvictim": 4856,
      "Ġkept": 4857,
      "Ġloved": 4858,
      "ĠRad": 4859,
      "Ġproperties": 4860,
      "Ġprotection": 4861,
      "itness": 4862,
      "TS": 4863,
      "cons": 4864,
      "Ġgenerally": 4865,
      "ĠLead": 4866,
      "anta": 4867,
      "Ġadopt": 4868,
      "AG": 4869,
      "Ġpartner": 4870,
      "ĠHill": 4871,
      "Ġprices": 4872,
      "Ġmaster": 4873,
      "ÑĦ": 4874,
      "Ġdaughter": 4875,
      "ĠLear": 4876,
      "Ġopened": 4877,
      "ĠGermany": 4878,
      "Ġcat": 4879,
      "plate": 4880,
      "Ġrap": 4881,
      "Ġpush": 4882,
      "ĠMedia": 4883,
      "ĠGlobal": 4884,
      "Ġpreviously": 4885,
      "Ġbecomes": 4886,
      "Ġsto": 4887,
      "ĠIsland": 4888,
      "ented": 4889,
      "Ġrequires": 4890,
      "}^{": 4891,
      "Ġselected": 4892,
      "Ġcounter": 4893,
      "Ġtask": 4894,
      "inct": 4895,
      "lay": 4896,
      "Ġexpress": 4897,
      "aste": 4898,
      "orrow": 4899,
      "Ġbrain": 4900,
      "Ġessential": 4901,
      "ilon": 4902,
      "win": 4903,
      "ĠApple": 4904,
      "active": 4905,
      "ario": 4906,
      "Ġsources": 4907,
      "ienced": 4908,
      "Ġstrength": 4909,
      "500": 4910,
      "ĠID": 4911,
      "alls": 4912,
      "Ġoffering": 4913,
      "Ġdamage": 4914,
      "clusion": 4915,
      "Ġsteps": 4916,
      "asy": 4917,
      "eps": 4918,
      "gment": 4919,
      "usion": 4920,
      "Ġles": 4921,
      "orthern": 4922,
      "Ġupdate": 4923,
      "ĠWhere": 4924,
      "Ġkilled": 4925,
      "Ð½Ð°": 4926,
      "ura": 4927,
      "Ġrob": 4928,
      "Ġcompar": 4929,
      "Ġconv": 4930,
      "ĠTheir": 4931,
      "Ġviews": 4932,
      "Ġwww": 4933,
      "Ġoperation": 4934,
      "Ġanc": 4935,
      "Ġscale": 4936,
      "Ġphoto": 4937,
      "Ġ2004": 4938,
      "Ġtruly": 4939,
      "Ġproposed": 4940,
      "Ġdefinitely": 4941,
      "Ġposted": 4942,
      "Ġspecies": 4943,
      "199": 4944,
      "Ġfiles": 4945,
      "Ġdynam": 4946,
      "MS": 4947,
      "asion": 4948,
      "Ġcontains": 4949,
      "Ġadvert": 4950,
      "ĠFrancis": 4951,
      "dered": 4952,
      "Ġda": 4953,
      "Ġguid": 4954,
      "ĠAuthor": 4955,
      "Ġslight": 4956,
      "Ġleadership": 4957,
      "Ġflu": 4958,
      "BS": 4959,
      "Ġmajority": 4960,
      "Ġarray": 4961,
      "Ġcalls": 4962,
      "ĠInformation": 4963,
      "Ġbiggest": 4964,
      "entially": 4965,
      "ĠNov": 4966,
      "Ġpresence": 4967,
      "osure": 4968,
      "Ġsolid": 4969,
      "Ġvacc": 4970,
      "ĠLook": 4971,
      "Ġguide": 4972,
      "Ġprefer": 4973,
      "apers": 4974,
      "Ġcris": 4975,
      "Ġofficials": 4976,
      "Ġclosed": 4977,
      "Ã§": 4978,
      "ky": 4979,
      "ĠJose": 4980,
      "Ġresist": 4981,
      "ĠOffic": 4982,
      "Ġmeant": 4983,
      "ĠSecret": 4984,
      "ĠParty": 4985,
      "ĠEngine": 4986,
      "Ġconfig": 4987,
      "Ġ90": 4988,
      "align": 4989,
      "Ġcontinues": 4990,
      "Ġpm": 4991,
      "ĠLove": 4992,
      "ĠAnt": 4993,
      "ĠTim": 4994,
      "ĠView": 4995,
      "Ġsustain": 4996,
      "rig": 4997,
      "itors": 4998,
      "Ġadvice": 4999,
      "Ġtrial": 5000,
      "levision": 5001,
      "Ġcommand": 5002,
      "atically": 5003,
      "ĠEarth": 5004,
      "Ġcapacity": 5005,
      "Exception": 5006,
      "Ġdespite": 5007,
      "Ġdrink": 5008,
      "ervice": 5009,
      "ĠInternet": 5010,
      "Ġhusband": 5011,
      "agram": 5012,
      "estic": 5013,
      "inding": 5014,
      "Ġreference": 5015,
      "ipp": 5016,
      "Ġfunding": 5017,
      "ĠRichard": 5018,
      "ani": 5019,
      "Ġcatch": 5020,
      "Is": 5021,
      "Ġphotos": 5022,
      "gency": 5023,
      "ĠÂ©": 5024,
      "Ġuseful": 5025,
      "Ġspl": 5026,
      "66": 5027,
      "Mod": 5028,
      "Ġfunctions": 5029,
      "Ġrelevant": 5030,
      ".[": 5031,
      "Ġlearned": 5032,
      "Ġign": 5033,
      "ĠCD": 5034,
      "Ġdeveloping": 5035,
      "abilities": 5036,
      "ĠRussian": 5037,
      "iminal": 5038,
      "Ġconstruct": 5039,
      "Ġtransform": 5040,
      "().": 5041,
      "Ġthank": 5042,
      "fit": 5043,
      "unte": 5044,
      "Ġcash": 5045,
      "inger": 5046,
      "edia": 5047,
      "ĠCanad": 5048,
      "Ġrank": 5049,
      "Ġvs": 5050,
      "sigma": 5051,
      "riage": 5052,
      "Ġaren": 5053,
      "Ġpros": 5054,
      "anda": 5055,
      "ĠFre": 5056,
      "Ġseeing": 5057,
      "lig": 5058,
      "ĠBet": 5059,
      "Ġstress": 5060,
      "ĠThank": 5061,
      "Ġfaith": 5062,
      "cd": 5063,
      "ĠVict": 5064,
      "uated": 5065,
      "Ġbul": 5066,
      "ĠVer": 5067,
      "Get": 5068,
      "Ġcolumn": 5069,
      "Ġdetermine": 5070,
      "ena": 5071,
      "Ġrow": 5072,
      "Ġentertain": 5073,
      "mathbf": 5074,
      "Ġinsp": 5075,
      "Ġnom": 5076,
      "OW": 5077,
      "ĠInvest": 5078,
      "Ġclearly": 5079,
      "Ġconference": 5080,
      "Ġactions": 5081,
      "Ġseemed": 5082,
      "Ġreturned": 5083,
      "77": 5084,
      "Ġcaused": 5085,
      "Ġrestrict": 5086,
      "ĠMel": 5087,
      "overy": 5088,
      "ĠGen": 5089,
      "Ġearth": 5090,
      "Ġcommunication": 5091,
      "Ġfant": 5092,
      "Ð½Ñĭ": 5093,
      "Ġjourney": 5094,
      "Ġ/**": 5095,
      "Ġfollows": 5096,
      "va": 5097,
      "Ġsongs": 5098,
      "Ġscore": 5099,
      "ĠMain": 5100,
      "ĠIT": 5101,
      "ĠPC": 5102,
      "Ġraised": 5103,
      "New": 5104,
      "Ġforces": 5105,
      "\";": 5106,
      "ĠNor": 5107,
      "SP": 5108,
      "Ġappears": 5109,
      "ĠChicago": 5110,
      "ĠLab": 5111,
      "Ġ(\\": 5112,
      "42": 5113,
      "oken": 5114,
      "rite": 5115,
      "43": 5116,
      "Ġartists": 5117,
      "ĠConn": 5118,
      "Ġpoll": 5119,
      "ĠPower": 5120,
      "anging": 5121,
      "ĠGrand": 5122,
      "look": 5123,
      "ĠTechnology": 5124,
      "ita": 5125,
      "uled": 5126,
      "Ġstorage": 5127,
      "Ġreached": 5128,
      "Ġhelping": 5129,
      "Ġtesting": 5130,
      "df": 5131,
      "Ġweekend": 5132,
      "hand": 5133,
      "yer": 5134,
      "ãģ": 5135,
      "Ġbehavior": 5136,
      "Ġrare": 5137,
      "EP": 5138,
      "Ġperformed": 5139,
      "ĠMont": 5140,
      "ĠKore": 5141,
      "Ġwouldn": 5142,
      "Ġdistance": 5143,
      "Ġadjust": 5144,
      "Ġmanager": 5145,
      "rc": 5146,
      "ania": 5147,
      "enses": 5148,
      "Ġing": 5149,
      "going": 5150,
      "ÐµÑĤ": 5151,
      "asure": 5152,
      "ĠBrown": 5153,
      "ĠMount": 5154,
      "Ġprote": 5155,
      "Ġnorth": 5156,
      "ala": 5157,
      "och": 5158,
      "ĠReport": 5159,
      "ĠFamily": 5160,
      "orter": 5161,
      "Ġitem": 5162,
      "ĠShow": 5163,
      "orney": 5164,
      "Ġexperiences": 5165,
      "Ġhomes": 5166,
      "Ġorg": 5167,
      "ĠMass": 5168,
      "gor": 5169,
      "ĠWestern": 5170,
      "abled": 5171,
      "Ġbath": 5172,
      "Ġprison": 5173,
      "ĠPri": 5174,
      "Ġfamous": 5175,
      "Ġenvironmental": 5176,
      "ĠNote": 5177,
      "Ġstandards": 5178,
      "ĠEp": 5179,
      "));": 5180,
      "Ġhealthy": 5181,
      "ĠPet": 5182,
      "ĠUse": 5183,
      "ĠSecurity": 5184,
      "dule": 5185,
      "Ġheavy": 5186,
      "Ġhab": 5187,
      "ĠExp": 5188,
      "Ġmentioned": 5189,
      "ĠÐ¡": 5190,
      "ĠVirgin": 5191,
      "Ġjoined": 5192,
      "Ġtend": 5193,
      "Ġbottom": 5194,
      "ĠRev": 5195,
      "41": 5196,
      "eless": 5197,
      "Ġcultural": 5198,
      "ĠWeek": 5199,
      "ĠSpecial": 5200,
      "Ġthanks": 5201,
      "lt": 5202,
      "ĠFollow": 5203,
      "Er": 5204,
      "Ġradio": 5205,
      "Ġolder": 5206,
      "ĠJim": 5207,
      "['": 5208,
      "reek": 5209,
      "Ġsea": 5210,
      "clusive": 5211,
      "Ġsouth": 5212,
      "Ġindex": 5213,
      "Ġotherwise": 5214,
      "ĠLong": 5215,
      "Ð½Ð¾": 5216,
      "85": 5217,
      "ias": 5218,
      "atre": 5219,
      "ua": 5220,
      "Ġconflic": 5221,
      "Ġonto": 5222,
      "Ġsenior": 5223,
      "Ġ///": 5224,
      "inder": 5225,
      "Ġresidents": 5226,
      "Ġinfluence": 5227,
      "Ġplaced": 5228,
      "pected": 5229,
      "Ġutil": 5230,
      "Ġesc": 5231,
      "Ġselection": 5232,
      "Ġburn": 5233,
      "idden": 5234,
      "IF": 5235,
      "icit": 5236,
      "ffee": 5237,
      "oving": 5238,
      "Ġsusp": 5239,
      "Ġfinding": 5240,
      "Ġexperienced": 5241,
      "Ġruns": 5242,
      "Ġfunds": 5243,
      "Ġextremely": 5244,
      "Ġarrest": 5245,
      "Ġgar": 5246,
      "Ġadapt": 5247,
      "Ġincred": 5248,
      "hy": 5249,
      "Ġsam": 5250,
      "ĠIran": 5251,
      "ECT": 5252,
      "mathrm": 5253,
      "Ġafford": 5254,
      "ĠBur": 5255,
      "ĠCheck": 5256,
      "Ġcreative": 5257,
      "Ġcovered": 5258,
      "Ġamb": 5259,
      "Ġviolence": 5260,
      "omet": 5261,
      "And": 5262,
      "ĠÑĥ": 5263,
      "Ġmist": 5264,
      "Ġfinished": 5265,
      "zen": 5266,
      "ĠTest": 5267,
      "ĠMedical": 5268,
      "ĠWood": 5269,
      "Ġvision": 5270,
      "Ġeat": 5271,
      "Ġmonitor": 5272,
      "Ġ70": 5273,
      "Ġcompetition": 5274,
      "Ġdriving": 5275,
      "Ġmental": 5276,
      ",'": 5277,
      "Ġkitchen": 5278,
      "Ġpolicies": 5279,
      "burg": 5280,
      "2019": 5281,
      "ĠLord": 5282,
      "sm": 5283,
      "ĠDen": 5284,
      "https": 5285,
      "Ġfan": 5286,
      "Ġtemperature": 5287,
      "arsh": 5288,
      "ĠWater": 5289,
      "ĠHead": 5290,
      "igration": 5291,
      "ĠSy": 5292,
      "0000": 5293,
      "ĠKn": 5294,
      "Ġnuc": 5295,
      "Ġcore": 5296,
      "Ġgeneration": 5297,
      "lock": 5298,
      "ĠSeries": 5299,
      "Ġsession": 5300,
      "under": 5301,
      "Ġweather": 5302,
      "Ġcrow": 5303,
      "char": 5304,
      "Ġsets": 5305,
      "Ġrich": 5306,
      "ĠÃ©": 5307,
      "ĠArts": 5308,
      "Ġbaby": 5309,
      "Ġwid": 5310,
      "Ġtit": 5311,
      "Ġphil": 5312,
      "ĠJesus": 5313,
      "icate": 5314,
      "Ġwhom": 5315,
      "osen": 5316,
      "ĠBoth": 5317,
      "Ġhotel": 5318,
      "Ġpractices": 5319,
      "bour": 5320,
      "Ġknows": 5321,
      "Ġwonderful": 5322,
      "Ð¾Ð¹": 5323,
      "Man": 5324,
      "Ġcold": 5325,
      "Ġmeasures": 5326,
      "phone": 5327,
      "Ġlock": 5328,
      "Ġeasier": 5329,
      "hol": 5330,
      "Ġsomew": 5331,
      "olars": 5332,
      "Ġadministration": 5333,
      "ĠCall": 5334,
      "ĠStat": 5335,
      "Ġvisual": 5336,
      "Ġ2003": 5337,
      "Ġexpression": 5338,
      "Ġbrief": 5339,
      "Ġserver": 5340,
      "ĠLake": 5341,
      "Ġ45": 5342,
      "othing": 5343,
      "Ġthousands": 5344,
      "ensity": 5345,
      "writ": 5346,
      "ĠEnter": 5347,
      "Ġdelivery": 5348,
      "ĠLouis": 5349,
      "Ġpackage": 5350,
      "nel": 5351,
      "Object": 5352,
      "road": 5353,
      "Ġarm": 5354,
      "quest": 5355,
      "Ġbecoming": 5356,
      "App": 5357,
      "ĠEU": 5358,
      "Ġseparate": 5359,
      "ĠSet": 5360,
      "life": 5361,
      "Ġinternet": 5362,
      "ĠWrit": 5363,
      "Ġshape": 5364,
      "rt": 5365,
      "ĠAmericans": 5366,
      "acement": 5367,
      "ilder": 5368,
      "ĠHen": 5369,
      "86": 5370,
      "size": 5371,
      "Ġappeared": 5372,
      "ĠParis": 5373,
      "ĠTeam": 5374,
      "ĠAL": 5375,
      "Ġconcent": 5376,
      "ĠOper": 5377,
      "Ġnav": 5378,
      "Ġstreet": 5379,
      "level": 5380,
      "ĠMur": 5381,
      "Ð»Ð°": 5382,
      "Ð»Ð¸": 5383,
      "Ġowner": 5384,
      "Ġinstruct": 5385,
      "Ġended": 5386,
      "ĠCEO": 5387,
      "Ġwriter": 5388,
      "Ġinstr": 5389,
      "Ġpassion": 5390,
      "Ġincor": 5391,
      "Ġshowing": 5392,
      "Ġrise": 5393,
      "ffect": 5394,
      "Ġnut": 5395,
      "rene": 5396,
      "uries": 5397,
      "Ġoccup": 5398,
      "crib": 5399,
      "table": 5400,
      "abin": 5401,
      "ĠAtl": 5402,
      "elligence": 5403,
      "Ġadvantage": 5404,
      "Ġdry": 5405,
      "Ġfields": 5406,
      "Ġcities": 5407,
      "js": 5408,
      "Ġ||": 5409,
      "pret": 5410,
      "ĠDie": 5411,
      "Ġlinks": 5412,
      "SC": 5413,
      "ĠOrgan": 5414,
      "ses": 5415,
      "Ġconnected": 5416,
      "pat": 5417,
      "iency": 5418,
      "Ġclasses": 5419,
      "oses": 5420,
      "Ġdiscussion": 5421,
      "ĠAmazon": 5422,
      "iat": 5423,
      "Ġapplied": 5424,
      "Ġproceed": 5425,
      "iced": 5426,
      "ĠBo": 5427,
      "sum": 5428,
      "FL": 5429,
      "eration": 5430,
      "On": 5431,
      "Ġwed": 5432,
      "lies": 5433,
      "Ġfacilities": 5434,
      "Ġfocused": 5435,
      "ĠJoe": 5436,
      "Ġfemale": 5437,
      "Ġunc": 5438,
      "Ġtechnical": 5439,
      "SE": 5440,
      "gers": 5441,
      "ĠIts": 5442,
      "Gr": 5443,
      "Ġlabor": 5444,
      "ĠIslam": 5445,
      "Ġteaching": 5446,
      "ixt": 5447,
      "Ġsigned": 5448,
      "ĠFire": 5449,
      "AB": 5450,
      "ĠSecond": 5451,
      "ribute": 5452,
      "ĠInte": 5453,
      "lem": 5454,
      "px": 5455,
      "For": 5456,
      "Ġbreat": 5457,
      "Ġneighbor": 5458,
      "xy": 5459,
      "igen": 5460,
      "Ġbattle": 5461,
      "Ġrent": 5462,
      "Ġdrop": 5463,
      "Ġoperating": 5464,
      "ĠAND": 5465,
      "summary": 5466,
      "Ġsmaller": 5467,
      "Ġcitizens": 5468,
      "cription": 5469,
      "CT": 5470,
      "Ġdiagn": 5471,
      "Ġfailed": 5472,
      "osoph": 5473,
      "ĠMartin": 5474,
      "Ġcircum": 5475,
      "fficient": 5476,
      "inem": 5477,
      "Ġsupported": 5478,
      "ĠEnd": 5479,
      "Ġidentify": 5480,
      "Ġfilms": 5481,
      "amework": 5482,
      "Al": 5483,
      "yan": 5484,
      "Ġ^": 5485,
      "ione": 5486,
      "sq": 5487,
      "No": 5488,
      "ĠCup": 5489,
      "Ġfell": 5490,
      "Ġretail": 5491,
      "Ġtree": 5492,
      "dex": 5493,
      "ĠAngeles": 5494,
      "Ð¾Ð³Ð¾": 5495,
      "fol": 5496,
      "Ġweap": 5497,
      "ilding": 5498,
      "ogue": 5499,
      "hab": 5500,
      "Ġpair": 5501,
      "ĠOld": 5502,
      "aper": 5503,
      "Ġhappens": 5504,
      "MA": 5505,
      "Ġexplore": 5506,
      "Ġinternal": 5507,
      "alle": 5508,
      "hi": 5509,
      "ĠSar": 5510,
      "ĠNY": 5511,
      "Ġfactor": 5512,
      "Ġ($": 5513,
      "ĠDig": 5514,
      "Ġcamera": 5515,
      "Ġmanufacture": 5516,
      "ĠFund": 5517,
      "ortunately": 5518,
      "illa": 5519,
      "iner": 5520,
      "mes": 5521,
      "Ġleaving": 5522,
      "azz": 5523,
      "Be": 5524,
      "ĠNav": 5525,
      "host": 5526,
      "mail": 5527,
      "oration": 5528,
      "Ġshop": 5529,
      "ĠÐŁ": 5530,
      "Ġnoted": 5531,
      "PA": 5532,
      "cks": 5533,
      "ĠPolice": 5534,
      "................": 5535,
      "emporary": 5536,
      "ĠPolicy": 5537,
      "':": 5538,
      "Text": 5539,
      "ipped": 5540,
      "ilde": 5541,
      "ĠIll": 5542,
      "Ġminor": 5543,
      "Ġarrang": 5544,
      "Ġdetermined": 5545,
      "ultural": 5546,
      "Ġprocesses": 5547,
      "Ġcars": 5548,
      "Ġthr": 5549,
      "Ġwhatever": 5550,
      "Ġsexual": 5551,
      "Ġdecisions": 5552,
      "friend": 5553,
      "ĠChief": 5554,
      "ĠAdv": 5555,
      "Ġagency": 5556,
      "ĠStep": 5557,
      "Ġfra": 5558,
      "Ġship": 5559,
      "Ġreligious": 5560,
      "ora": 5561,
      "pace": 5562,
      "Ġanimals": 5563,
      "ĠAnal": 5564,
      "Ġopinion": 5565,
      "rehens": 5566,
      "Ġtraffic": 5567,
      "rics": 5568,
      "ĠMot": 5569,
      "ĠProv": 5570,
      "ĠFood": 5571,
      "Ġdepartment": 5572,
      "Ġpieces": 5573,
      "Ġpool": 5574,
      "Ġnegative": 5575,
      "Ġguarant": 5576,
      "ĠTown": 5577,
      "Ġprepar": 5578,
      "ĠCath": 5579,
      "Ġhaven": 5580,
      "Ġdriver": 5581,
      "}{\\": 5582,
      "Ġformat": 5583,
      "Ġtro": 5584,
      "Ġprepared": 5585,
      "But": 5586,
      "Le": 5587,
      "Ġadvance": 5588,
      "ĠSand": 5589,
      "Ġdistrict": 5590,
      "user": 5591,
      "^{-": 5592,
      "ideos": 5593,
      "Ġmanaged": 5594,
      "iliar": 5595,
      "Ġfashion": 5596,
      "ĠPriv": 5597,
      "ĠProt": 5598,
      "icians": 5599,
      "udd": 5600,
      "ounder": 5601,
      "Ġdecre": 5602,
      "ĠChris": 5603,
      "Ġadding": 5604,
      "Ġmut": 5605,
      "ĠKh": 5606,
      "ÐºÐ°": 5607,
      "Ġremove": 5608,
      "ĠObama": 5609,
      "rency": 5610,
      "otic": 5611,
      "Ġrac": 5612,
      "Ġchanging": 5613,
      "ĠCH": 5614,
      "rier": 5615,
      "Ġconsequ": 5616,
      "ĠArab": 5617,
      "Ġdefault": 5618,
      "Ġintroduced": 5619,
      "Ġ;": 5620,
      "ĠBefore": 5621,
      "odies": 5622,
      "._": 5623,
      "owl": 5624,
      "Ġresearc": 5625,
      "If": 5626,
      "Ġcoord": 5627,
      "Ġdocuments": 5628,
      "Ġinstit": 5629,
      "rees": 5630,
      "Ġborder": 5631,
      "ns": 5632,
      "ĠCentre": 5633,
      "ĠÐĴ": 5634,
      "ĠÎ": 5635,
      "Ġdedicated": 5636,
      "ĠStand": 5637,
      "Ġchair": 5638,
      "Ġguess": 5639,
      "Ġfreedom": 5640,
      "Ġdecades": 5641,
      "oung": 5642,
      "utely": 5643,
      "ĠReal": 5644,
      "iture": 5645,
      "Ġuns": 5646,
      "Ġassert": 5647,
      "Ġevening": 5648,
      "Ġ&&": 5649,
      "Ġgift": 5650,
      "Ġnumerous": 5651,
      "ĠAustralian": 5652,
      "related": 5653,
      "acks": 5654,
      "oves": 5655,
      "Ġreli": 5656,
      "inations": 5657,
      "Ġbalance": 5658,
      "Ġimportance": 5659,
      "link": 5660,
      "ĠPerson": 5661,
      "Ġ2002": 5662,
      "lang": 5663,
      "Ġofficer": 5664,
      "Ġoptim": 5665,
      "Ġcrisis": 5666,
      "ensions": 5667,
      "ĠCre": 5668,
      "oria": 5669,
      "Ġvon": 5670,
      "gorith": 5671,
      "Ġ(\"": 5672,
      "Ð²Ð°": 5673,
      "ĠLu": 5674,
      "Ġbrow": 5675,
      "bo": 5676,
      "ola": 5677,
      "Ġeventually": 5678,
      "SA": 5679,
      "Ġyouth": 5680,
      "Ġefficient": 5681,
      "iler": 5682,
      "figure": 5683,
      "+\\": 5684,
      "ĠLee": 5685,
      "ĠWindows": 5686,
      "ĠId": 5687,
      "rum": 5688,
      "Ġ2001": 5689,
      "ĠExper": 5690,
      "Ġappeal": 5691,
      "iÃ³n": 5692,
      "Ġfinish": 5693,
      "Ġpictures": 5694,
      "Ġconcerns": 5695,
      "reme": 5696,
      "fra": 5697,
      "ĠTO": 5698,
      "ĠFederal": 5699,
      "atures": 5700,
      "Ġguy": 5701,
      "Ġunits": 5702,
      "ĠRoyal": 5703,
      "ĠJohnson": 5704,
      "Ġmanage": 5705,
      "89": 5706,
      "Ġaware": 5707,
      "Ġstated": 5708,
      "Â»": 5709,
      "Ġsharing": 5710,
      "Ġbutton": 5711,
      "ĠCy": 5712,
      "Ġconsid": 5713,
      "ĠMike": 5714,
      "ĠPan": 5715,
      "ĠIndust": 5716,
      "Ġterror": 5717,
      "Ġmarkets": 5718,
      "LC": 5719,
      "Ġalternative": 5720,
      "Ġeditor": 5721,
      "Ġunivers": 5722,
      "Ġmetal": 5723,
      "ĠMake": 5724,
      "Ġ!=": 5725,
      "DF": 5726,
      "cean": 5727,
      "Ġsecure": 5728,
      "Ġlived": 5729,
      "ĠJeff": 5730,
      "Ġhandle": 5731,
      "ĠAsia": 5732,
      "fty": 5733,
      "Ġwaiting": 5734,
      "Class": 5735,
      "ĠPolit": 5736,
      "Ġmaximum": 5737,
      "ĠHave": 5738,
      "Ġequal": 5739,
      "Ġidentified": 5740,
      "PR": 5741,
      "ĠGame": 5742,
      "count": 5743,
      "Ġdoubt": 5744,
      "idential": 5745,
      "ups": 5746,
      "ucky": 5747,
      "Ġfab": 5748,
      "Ġcoach": 5749,
      "Ġobtained": 5750,
      "Ġedge": 5751,
      "Ġcommitted": 5752,
      "uthors": 5753,
      "unning": 5754,
      "Ġgirls": 5755,
      "']": 5756,
      "Ġepisode": 5757,
      "free": 5758,
      "index": 5759,
      "ĠRights": 5760,
      "Ġchief": 5761,
      "Ġlots": 5762,
      "oted": 5763,
      "Ġmarried": 5764,
      "76": 5765,
      "Ġrandom": 5766,
      "ĠÑĤ": 5767,
      "ĠBlue": 5768,
      "What": 5769,
      "ĠSection": 5770,
      "Ġgain": 5771,
      "rip": 5772,
      "ĠCanadian": 5773,
      "ĠBas": 5774,
      "Ġmostly": 5775,
      "poses": 5776,
      "ĠEnergy": 5777,
      "alled": 5778,
      "Ġnor": 5779,
      "het": 5780,
      "agged": 5781,
      "Ġwatching": 5782,
      "ĠJon": 5783,
      "Ġflex": 5784,
      "beta": 5785,
      "Ġspring": 5786,
      "igan": 5787,
      "ipping": 5788,
      "Ġfif": 5789,
      "*}": 5790,
      "Time": 5791,
      "conds": 5792,
      "Ġbeat": 5793,
      "]{": 5794,
      "CE": 5795,
      "ĠProfessor": 5796,
      "ĠFind": 5797,
      "Ġcop": 5798,
      "Ġinjury": 5799,
      "uing": 5800,
      "ĠOk": 5801,
      "cos": 5802,
      "Ġpayment": 5803,
      "cript": 5804,
      "Ġpray": 5805,
      "bed": 5806,
      "Ġhearing": 5807,
      "Par": 5808,
      "ĠCorpor": 5809,
      "De": 5810,
      "phas": 5811,
      "icious": 5812,
      "Ġris": 5813,
      "while": 5814,
      "amm": 5815,
      "Ġcombination": 5816,
      "ĠFurther": 5817,
      "ĠPo": 5818,
      "Ġlaunched": 5819,
      "Ġarticles": 5820,
      "Ġproud": 5821,
      "ĠThrough": 5822,
      "');": 5823,
      "ĠCharles": 5824,
      "Ġ500": 5825,
      "Ġflo": 5826,
      "ĠBob": 5827,
      "Ġsched": 5828,
      "Ġlabel": 5829,
      "Ġmort": 5830,
      "ĠGeorg": 5831,
      "Ġestate": 5832,
      "Ġhyd": 5833,
      "Ġ32": 5834,
      "Ġexecutive": 5835,
      "ĠÐ°": 5836,
      "Ġadvanced": 5837,
      "Ġleads": 5838,
      "Ġvolume": 5839,
      "irmed": 5840,
      "Ġmit": 5841,
      "ĠRE": 5842,
      "Ġkeeping": 5843,
      "Ġpor": 5844,
      "Ġpanel": 5845,
      "Ġcrime": 5846,
      "Ġideal": 5847,
      "ĠAdminist": 5848,
      "erate": 5849,
      "ui": 5850,
      "ĠValley": 5851,
      "ocument": 5852,
      "Ġapproximately": 5853,
      "HS": 5854,
      "ĠThus": 5855,
      "cles": 5856,
      "Ġice": 5857,
      ")(": 5858,
      "sl": 5859,
      "asks": 5860,
      "Ġinterests": 5861,
      "Ġfix": 5862,
      "Ġclinical": 5863,
      "Ġlisted": 5864,
      "Ġjoint": 5865,
      "CA": 5866,
      "ĠGal": 5867,
      "2018": 5868,
      "79": 5869,
      "how": 5870,
      "56": 5871,
      "Ġpod": 5872,
      "Ġlisten": 5873,
      "Ġbatter": 5874,
      "Ġinspir": 5875,
      "Ġsymbol": 5876,
      "ĠMen": 5877,
      "Ġstarts": 5878,
      "Ġissued": 5879,
      "ker": 5880,
      "ĠCast": 5881,
      "ĠWall": 5882,
      "Ġexperts": 5883,
      "ĠMax": 5884,
      "Ġheight": 5885,
      "Ġguys": 5886,
      "Ġvolunte": 5887,
      "Ġmissing": 5888,
      "Ġplays": 5889,
      "Ġacademic": 5890,
      "Ġsurvey": 5891,
      "cm": 5892,
      "Ġhistorical": 5893,
      "??": 5894,
      "ban": 5895,
      "ĠOnly": 5896,
      "ĠTour": 5897,
      "Ġstars": 5898,
      "big": 5899,
      "ĠAff": 5900,
      "ded": 5901,
      "Ġban": 5902,
      "Ġdiscover": 5903,
      "aks": 5904,
      "Ġcou": 5905,
      "Ġnotes": 5906,
      "ĠPosted": 5907,
      "Ġresol": 5908,
      "ears": 5909,
      "Ġanaly": 5910,
      "urban": 5911,
      "ĠMaster": 5912,
      "Ġcarried": 5913,
      "Ġraise": 5914,
      "59": 5915,
      "EW": 5916,
      "uster": 5917,
      "Ġtelevision": 5918,
      "Ġfat": 5919,
      "allery": 5920,
      "Ġrelationships": 5921,
      "Ġfurn": 5922,
      "ĠÂ·": 5923,
      "Ġexchange": 5924,
      "Ð¾Ñģ": 5925,
      "ingly": 5926,
      "Ġbrings": 5927,
      "Ġrapid": 5928,
      "Ġshut": 5929,
      "All": 5930,
      "achel": 5931,
      "ĠAud": 5932,
      "conn": 5933,
      "ĠOnline": 5934,
      "ĠWay": 5935,
      "ih": 5936,
      "ĠNetwork": 5937,
      "MP": 5938,
      "andemic": 5939,
      "rant": 5940,
      "ĠLo": 5941,
      "Qu": 5942,
      "Ġfuel": 5943,
      "Ġadvent": 5944,
      "ĠJustice": 5945,
      "Ġmotor": 5946,
      "Ġresource": 5947,
      "EST": 5948,
      "inating": 5949,
      "Ġpun": 5950,
      "Ġprotected": 5951,
      ")}": 5952,
      "Ġplants": 5953,
      "ĠLog": 5954,
      "Ġtele": 5955,
      "Ġcomponents": 5956,
      "CL": 5957,
      "ĠClick": 5958,
      "Ġliber": 5959,
      "Ġphase": 5960,
      "iden": 5961,
      "Ġcoverage": 5962,
      "Ġinvestigation": 5963,
      "Ġrecorded": 5964,
      "Ġidentity": 5965,
      "ĠDev": 5966,
      "Ġscript": 5967,
      "Ġscientific": 5968,
      "pty": 5969,
      "Ġdefend": 5970,
      "Ġunless": 5971,
      "Ġforced": 5972,
      "can": 5973,
      "========": 5974,
      "ĠWatch": 5975,
      "ja": 5976,
      "Ġpp": 5977,
      "Ġexplain": 5978,
      "Ġfacility": 5979,
      "Ġwelcome": 5980,
      "ĠMiddle": 5981,
      "ĠRo": 5982,
      "Ġminimum": 5983,
      "../../": 5984,
      "ĠJapanese": 5985,
      "trans": 5986,
      "Error": 5987,
      "Ġ/>": 5988,
      "ĠĠĠĠĠĠĠĠĠĠĠĠĠ": 5989,
      "cho": 5990,
      "Ġdefense": 5991,
      "Ġlas": 5992,
      "Ġuniversity": 5993,
      "Ġclassic": 5994,
      "ÐºÐ¸": 5995,
      "++": 5996,
      "kins": 5997,
      "Ġwinning": 5998,
      "lymp": 5999,
      "Ġdebt": 6000,
      "gery": 6001,
      "ÐµÐ½Ð¸": 6002,
      "Ġna": 6003,
      "ĠStart": 6004,
      "Ġpurposes": 6005,
      "Ġmode": 6006,
      "Ġresponsibility": 6007,
      "Ġspending": 6008,
      "ĠBoy": 6009,
      "Ġcalling": 6010,
      "jo": 6011,
      "ĠFestival": 6012,
      "function": 6013,
      "Ġsounds": 6014,
      "Ġ$(": 6015,
      "Ġ36": 6016,
      "Ġton": 6017,
      "Ġjustice": 6018,
      "Ġprocessing": 6019,
      "ansion": 6020,
      "Ġsport": 6021,
      "stein": 6022,
      "ĠHaw": 6023,
      "Ġherself": 6024,
      "iples": 6025,
      "Ġapparent": 6026,
      "ĠTake": 6027,
      "ĠMcC": 6028,
      "ĠEqu": 6029,
      "rical": 6030,
      "Ġdoctor": 6031,
      "Ġment": 6032,
      "Ġcriminal": 6033,
      "Ġdial": 6034,
      "TH": 6035,
      "Ġvehicles": 6036,
      "thlet": 6037,
      "stream": 6038,
      "Ð¸ÑĤ": 6039,
      "sembly": 6040,
      "File": 6041,
      "Ġwinter": 6042,
      "Ġcorporate": 6043,
      "^\\": 6044,
      "Ġfourth": 6045,
      "oston": 6046,
      "ĠVirginia": 6047,
      "Ġmanner": 6048,
      "Ġrain": 6049,
      "ĠCard": 6050,
      "bi": 6051,
      "Ġexcited": 6052,
      "Ġsignificantly": 6053,
      "content": 6054,
      "ĠTem": 6055,
      "ĠMicrosoft": 6056,
      "Ġhero": 6057,
      "ĠExt": 6058,
      "ship": 6059,
      "Ġregistered": 6060,
      "Ġinfrast": 6061,
      "Ġcoast": 6062,
      "Ġwitness": 6063,
      "Ġexercise": 6064,
      "Ġannounce": 6065,
      "Ġdress": 6066,
      "Ġ2023": 6067,
      "ulty": 6068,
      "which": 6069,
      "Ġteachers": 6070,
      "obe": 6071,
      "etime": 6072,
      "ĠSign": 6073,
      "Ġteacher": 6074,
      "Ġholds": 6075,
      "Ġcritic": 6076,
      "scape": 6077,
      "Ġpolitics": 6078,
      "ĠDom": 6079,
      "ĠMexico": 6080,
      "Ġtom": 6081,
      "Ġcircumst": 6082,
      "ĠFilm": 6083,
      "Ġfill": 6084,
      "Ġflat": 6085,
      "Ġfixed": 6086,
      "Ġshares": 6087,
      "Ġagreed": 6088,
      "Ġreviews": 6089,
      "otes": 6090,
      "ĠThose": 6091,
      "ingu": 6092,
      "Requ": 6093,
      "Ġsample": 6094,
      "apping": 6095,
      "times": 6096,
      "ais": 6097,
      "ĠTre": 6098,
      "Ġstre": 6099,
      "iams": 6100,
      "Ġbelong": 6101,
      "$\\": 6102,
      "Ġcombined": 6103,
      "ĠCharl": 6104,
      "theta": 6105,
      "ĠColor": 6106,
      "zy": 6107,
      "okes": 6108,
      "ĠPhoto": 6109,
      "Ġsand": 6110,
      "Ġ});": 6111,
      "Ġpal": 6112,
      "Ġfailure": 6113,
      "Ġillustr": 6114,
      "ogen": 6115,
      "osit": 6116,
      "ĠRoman": 6117,
      "Ġconven": 6118,
      "liament": 6119,
      "reland": 6120,
      "Ġkid": 6121,
      "());": 6122,
      "ĠPac": 6123,
      "Ġcraft": 6124,
      "Ġnine": 6125,
      "Ġofficers": 6126,
      "post": 6127,
      "Ġcentre": 6128,
      "Ġsweet": 6129,
      "Ġhousing": 6130,
      "Ġsquare": 6131,
      "iments": 6132,
      "Ġmovies": 6133,
      "elines": 6134,
      "leq": 6135,
      "Ġapart": 6136,
      "Ġdatabase": 6137,
      "Ġwilling": 6138,
      "ĠAcademy": 6139,
      "Ġinterpret": 6140,
      "hr": 6141,
      "Ġbuildings": 6142,
      "olar": 6143,
      "ĠEll": 6144,
      "Ġfish": 6145,
      "Ġspeech": 6146,
      "ilit": 6147,
      "ĠAndrew": 6148,
      "Ġcategory": 6149,
      "Ġjump": 6150,
      "othes": 6151,
      "EE": 6152,
      "ĠChildren": 6153,
      "Ġupp": 6154,
      "Ġrevealed": 6155,
      "Ġlose": 6156,
      "bur": 6157,
      "omy": 6158,
      "Ġauthority": 6159,
      "Ġbra": 6160,
      "uations": 6161,
      "Ġdemocr": 6162,
      "Ġalle": 6163,
      "Ġslightly": 6164,
      "ĠSports": 6165,
      "Ġregul": 6166,
      "Test": 6167,
      "ĠYoung": 6168,
      "Ġadvoc": 6169,
      "draw": 6170,
      "ĠIP": 6171,
      "ĠHospital": 6172,
      "Ġwear": 6173,
      "ĠEst": 6174,
      "Ġchannel": 6175,
      "Ġcards": 6176,
      "Ġlibrary": 6177,
      "Ġ/*": 6178,
      "Ġmechanism": 6179,
      "Ġtechniques": 6180,
      "ĠGra": 6181,
      "town": 6182,
      "Ġleaves": 6183,
      "Key": 6184,
      "Ġwaste": 6185,
      "Ġallowing": 6186,
      "eller": 6187,
      "ĠHon": 6188,
      "ushed": 6189,
      "ÐµÐ¼": 6190,
      "Ġforest": 6191,
      "Ġuna": 6192,
      "Ġcorner": 6193,
      "Ġcoffee": 6194,
      "arp": 6195,
      "ĠPay": 6196,
      "Ġvent": 6197,
      "GB": 6198,
      "door": 6199,
      "Ġdecide": 6200,
      "ĠPenn": 6201,
      "By": 6202,
      "Ġcomfortable": 6203,
      "Ġswitch": 6204,
      "tenance": 6205,
      "Ġtheme": 6206,
      "ĠJun": 6207,
      "ĠLim": 6208,
      "Ġcomponent": 6209,
      "west": 6210,
      "Ġbright": 6211,
      "ATION": 6212,
      "ĠWal": 6213,
      "oti": 6214,
      "ĠJones": 6215,
      "Ġweak": 6216,
      "Set": 6217,
      "Ġau": 6218,
      "Ġaspects": 6219,
      "erg": 6220,
      "ocket": 6221,
      "ĠDaniel": 6222,
      "Ġreb": 6223,
      "Ġfamiliar": 6224,
      "Ġdepart": 6225,
      "eah": 6226,
      "Ġlit": 6227,
      "Ġinstitutions": 6228,
      "Ġthoughts": 6229,
      "Ġintended": 6230,
      "ĠTherefore": 6231,
      "ĠArmy": 6232,
      "Ġstick": 6233,
      "Ġputting": 6234,
      "ĠDu": 6235,
      "Context": 6236,
      "Ġaccident": 6237,
      "ba": 6238,
      "Ġdetect": 6239,
      "87": 6240,
      "Ġmedium": 6241,
      "inst": 6242,
      "erry": 6243,
      "ĠVan": 6244,
      "ĠChampions": 6245,
      "Ġfilled": 6246,
      "Ġrom": 6247,
      "Ġdisp": 6248,
      "ĠProduct": 6249,
      "position": 6250,
      "script": 6251,
      "infty": 6252,
      "ĠLibrary": 6253,
      "Ġandroid": 6254,
      "Ġexplained": 6255,
      "Ġsty": 6256,
      "ĠChair": 6257,
      "gamma": 6258,
      "Ġvirtual": 6259,
      "ĠIreland": 6260,
      "ĠPhot": 6261,
      "Ġhonest": 6262,
      "Ġdiscovered": 6263,
      "parent": 6264,
      "Ġexec": 6265,
      "Ġobjects": 6266,
      "lines": 6267,
      "Ġreduced": 6268,
      "Ġconcerned": 6269,
      "rich": 6270,
      "amin": 6271,
      "url": 6272,
      "Ġplenty": 6273,
      "Ġtransition": 6274,
      "Â°": 6275,
      "Ġobserved": 6276,
      "ĠLight": 6277,
      "ĠSenate": 6278,
      "cknow": 6279,
      "Ġframe": 6280,
      "Ġholding": 6281,
      "ĠConference": 6282,
      "Ġspecifically": 6283,
      "Ñī": 6284,
      "Ġforget": 6285,
      "ĠAD": 6286,
      "ĠTable": 6287,
      "Ġremoved": 6288,
      "69": 6289,
      "ket": 6290,
      "Ġtests": 6291,
      "Ã£": 6292,
      "Ġtechnologies": 6293,
      "Ġfeels": 6294,
      "Ġrespectively": 6295,
      "Ġanimal": 6296,
      "57": 6297,
      "Ġisland": 6298,
      "Ġimpress": 6299,
      "iana": 6300,
      "ums": 6301,
      "ride": 6302,
      "ĠĠĠĠĊ": 6303,
      "Ġaffected": 6304,
      "quad": 6305,
      "ĠJoseph": 6306,
      "Ġshift": 6307,
      "Ġreturns": 6308,
      "ĠOlymp": 6309,
      "Ġconclud": 6310,
      "style": 6311,
      "Ġinfrastructure": 6312,
      "Ġapproved": 6313,
      "Ġemergency": 6314,
      "Ġdiet": 6315,
      "ĠJewish": 6316,
      "space": 6317,
      "Ġasking": 6318,
      "Ġsmooth": 6319,
      "sole": 6320,
      "ivered": 6321,
      "aked": 6322,
      "itutional": 6323,
      "Ġrestaurant": 6324,
      "ati": 6325,
      "ĠEnvironment": 6326,
      "ployment": 6327,
      "iano": 6328,
      "ĠHor": 6329,
      "fil": 6330,
      "ĠSecretary": 6331,
      "dden": 6332,
      "Ġrid": 6333,
      "Ġexamples": 6334,
      "Ġaccompl": 6335,
      "coh": 6336,
      "Ġsupposed": 6337,
      "Ġsupporting": 6338,
      "isters": 6339,
      "ctors": 6340,
      "Ġera": 6341,
      "Ġdivid": 6342,
      "arks": 6343,
      "rer": 6344,
      "Ġfle": 6345,
      "Ġmusical": 6346,
      "Ġmotion": 6347,
      "Ġrot": 6348,
      "ĠMP": 6349,
      "hop": 6350,
      "Ġobserv": 6351,
      "Ġtells": 6352,
      "Ġchain": 6353,
      "Ġkill": 6354,
      "rick": 6355,
      "ĠKar": 6356,
      "olec": 6357,
      "ĠBoston": 6358,
      "Ġtrees": 6359,
      "rec": 6360,
      "ĠBeach": 6361,
      "essions": 6362,
      "Ġparticipants": 6363,
      "ĠWalk": 6364,
      "ĠFort": 6365,
      "With": 6366,
      "Ġindustrial": 6367,
      "Ġfort": 6368,
      "Ð°ÑĤ": 6369,
      "Ġperspective": 6370,
      "prise": 6371,
      "Ġschedule": 6372,
      "elled": 6373,
      "Â®": 6374,
      "Ġrelax": 6375,
      "Ġdiss": 6376,
      "ancer": 6377,
      "ĠDoes": 6378,
      "Ad": 6379,
      "ograp": 6380,
      "lication": 6381,
      "Ġbond": 6382,
      "ĠInstead": 6383,
      "Ġnone": 6384,
      "ĠStudies": 6385,
      "ician": 6386,
      "Ġemphas": 6387,
      "ye": 6388,
      "Ġcandidate": 6389,
      "Ġmale": 6390,
      "elly": 6391,
      "reprene": 6392,
      "rome": 6393,
      "='": 6394,
      "case": 6395,
      "Ġconversation": 6396,
      "run": 6397,
      "Ġbelief": 6398,
      "ĠCa": 6399,
      "Ġflight": 6400,
      "EX": 6401,
      "page": 6402,
      "State": 6403,
      "ĠDespite": 6404,
      "Ġlocations": 6405,
      "Ġvideos": 6406,
      "ĠCode": 6407,
      "Ġhighlight": 6408,
      "ĠUsing": 6409,
      "ĠDisc": 6410,
      "CO": 6411,
      "Ġexciting": 6412,
      "Ġvillage": 6413,
      "ĠThree": 6414,
      "ĠHa": 6415,
      "Ġsumm": 6416,
      "tau": 6417,
      "Ġchemical": 6418,
      "Ġargument": 6419,
      "ĠâĨ": 6420,
      "ĠKim": 6421,
      "fast": 6422,
      "mosp": 6423,
      "Ġmo": 6424,
      "public": 6425,
      "Ġreaders": 6426,
      "Ġhyp": 6427,
      "Ġstanding": 6428,
      "stract": 6429,
      "long": 6430,
      "iveness": 6431,
      "Ġking": 6432,
      "delta": 6433,
      "Ġdetailed": 6434,
      "ĠIra": 6435,
      "Ġagent": 6436,
      "Ġwealth": 6437,
      "ĠColl": 6438,
      "otal": 6439,
      "weet": 6440,
      "ĠWilliams": 6441,
      "ĠMic": 6442,
      "Ġupdated": 6443,
      "Ġmassive": 6444,
      "$-": 6445,
      "ĠCustom": 6446,
      "Ġminute": 6447,
      "ishes": 6448,
      "Ġmarriage": 6449,
      "Ġbringing": 6450,
      "uable": 6451,
      "Ġsnow": 6452,
      "ĠSpring": 6453,
      "Ġmatters": 6454,
      "outs": 6455,
      "Ġprofile": 6456,
      "Ġsudden": 6457,
      "Ġlos": 6458,
      "Ġconducted": 6459,
      "aven": 6460,
      "Ġmotiv": 6461,
      "ĠPhys": 6462,
      "Ġpil": 6463,
      "Ġnarr": 6464,
      "2020": 6465,
      "Ġdraft": 6466,
      "group": 6467,
      "Ġincorpor": 6468,
      "arts": 6469,
      "rehensive": 6470,
      "Ġlin": 6471,
      "Ġenjoyed": 6472,
      "Ġmir": 6473,
      "Ġsan": 6474,
      "Ġarrived": 6475,
      "Ġcharges": 6476,
      "nic": 6477,
      "Ġreform": 6478,
      "Ġabsolutely": 6479,
      "real": 6480,
      "Ġassistance": 6481,
      "ĠExecutive": 6482,
      "oles": 6483,
      "Ġproof": 6484,
      "ĠLar": 6485,
      "Ġprofessionals": 6486,
      "ĠMuslim": 6487,
      "RI": 6488,
      "Ġran": 6489,
      "Ġtreated": 6490,
      "power": 6491,
      "antly": 6492,
      "2017": 6493,
      "itage": 6494,
      "Ġsignal": 6495,
      "Ġkick": 6496,
      "Ġseat": 6497,
      "greg": 6498,
      "crete": 6499,
      "Int": 6500,
      "Ġcarbon": 6501,
      "map": 6502,
      "Ġenem": 6503,
      "Ġauthorities": 6504,
      "ĠKen": 6505,
      "astern": 6506,
      "Ġcloud": 6507,
      "Ġgreatest": 6508,
      "gypt": 6509,
      "67": 6510,
      "Ġserving": 6511,
      "Ġpromote": 6512,
      "(),": 6513,
      "Ġcreation": 6514,
      "orders": 6515,
      "ĠTrust": 6516,
      "irds": 6517,
      "isc": 6518,
      "Ġtopic": 6519,
      "Ġ1990": 6520,
      "ĠÐļ": 6521,
      "¿½": 6522,
      "\"><": 6523,
      "rid": 6524,
      "Ð¾ÑĤ": 6525,
      "Ġformed": 6526,
      "ĠNig": 6527,
      "Ġwalking": 6528,
      "ĠFull": 6529,
      "Ġsoul": 6530,
      "Ġcommitment": 6531,
      "ï¿½": 6532,
      "oster": 6533,
      "Ġrevenue": 6534,
      "Ġcommittee": 6535,
      "ipal": 6536,
      "Ġcommission": 6537,
      "Add": 6538,
      "Ġadults": 6539,
      "nu": 6540,
      "ifications": 6541,
      "ĠMedicine": 6542,
      "58": 6543,
      "Ġquiet": 6544,
      "length": 6545,
      "Ġje": 6546,
      "Path": 6547,
      "Ġpandemic": 6548,
      "Ã£o": 6549,
      "Ġelim": 6550,
      "ĠLive": 6551,
      "Ġrenew": 6552,
      "Ġven": 6553,
      "Ġadministr": 6554,
      "Ġgarden": 6555,
      "Ġsympt": 6556,
      "ĠInn": 6557,
      "Ġtun": 6558,
      "ĠAgain": 6559,
      "ĠUk": 6560,
      "Ġroute": 6561,
      "Ġwire": 6562,
      "Ġbeauty": 6563,
      "encing": 6564,
      "ĠFinally": 6565,
      "Ġwine": 6566,
      "Ġwedding": 6567,
      "ographic": 6568,
      "ĠSteve": 6569,
      "Ġdestroy": 6570,
      "irms": 6571,
      "pack": 6572,
      "Ġdiscussed": 6573,
      "Ġvisitors": 6574,
      "ĠScot": 6575,
      "aped": 6576,
      "Ġholiday": 6577,
      "}$.": 6578,
      "ĠON": 6579,
      "Ġtypically": 6580,
      "po": 6581,
      "ĠMid": 6582,
      "Ð°ÑĢ": 6583,
      "ĠFar": 6584,
      "pet": 6585,
      "Ġkm": 6586,
      "andon": 6587,
      "rieved": 6588,
      "Ġcaught": 6589,
      "anche": 6590,
      "Ġrelatively": 6591,
      "ĠCe": 6592,
      "Ġnuclear": 6593,
      "Ġdescription": 6594,
      "Ġdance": 6595,
      "ĠAccess": 6596,
      "ERS": 6597,
      "partial": 6598,
      "Ġsimpl": 6599,
      "Ġresearchers": 6600,
      "Ġtow": 6601,
      "ĠCA": 6602,
      "ĠCarolina": 6603,
      "ĠWH": 6604,
      "irty": 6605,
      "nam": 6606,
      "ĠTay": 6607,
      "Ġbegins": 6608,
      "Ġsac": 6609,
      "rho": 6610,
      "Ġcauses": 6611,
      "Ġsubstant": 6612,
      "ĠFour": 6613,
      "ĠLiber": 6614,
      "ĠPop": 6615,
      "Ġseconds": 6616,
      "Ġpositions": 6617,
      "Ġbes": 6618,
      "Ġseeking": 6619,
      "There": 6620,
      "EF": 6621,
      "ador": 6622,
      "rawn": 6623,
      "2016": 6624,
      "Ġaccommod": 6625,
      "Ġfundament": 6626,
      "Ġpossibly": 6627,
      "ĠFigure": 6628,
      "uts": 6629,
      "Ġinspired": 6630,
      "noon": 6631,
      "omega": 6632,
      "ĠAT": 6633,
      "Ġregional": 6634,
      "Ġaccounts": 6635,
      "stra": 6636,
      "iverse": 6637,
      "mond": 6638,
      "ĠAR": 6639,
      "ptions": 6640,
      "ĠSpace": 6641,
      "ĠPak": 6642,
      "54": 6643,
      "ĠPrem": 6644,
      "ĠJac": 6645,
      "ĠExpl": 6646,
      "ipl": 6647,
      "forcement": 6648,
      "Ġshel": 6649,
      "ĠPass": 6650,
      "resents": 6651,
      "ĠAwards": 6652,
      "Ġ1999": 6653,
      "Ġ300": 6654,
      "Ġbought": 6655,
      "Ġconflict": 6656,
      "Ġremaining": 6657,
      "ĠNon": 6658,
      "Ã±": 6659,
      "Ġhundreds": 6660,
      "acle": 6661,
      "areness": 6662,
      "Ġspons": 6663,
      "itionally": 6664,
      "Ġposts": 6665,
      "Ġdomestic": 6666,
      "68": 6667,
      "Ã©e": 6668,
      "Ġgrew": 6669,
      "Ġdifferences": 6670,
      "avor": 6671,
      "lywood": 6672,
      "eper": 6673,
      "Ġgather": 6674,
      "Ġsides": 6675,
      "Ġrail": 6676,
      "Ġrecip": 6677,
      "sen": 6678,
      "ading": 6679,
      "ĠItaly": 6680,
      "ĠDC": 6681,
      "Ġentirely": 6682,
      "Ġdelivered": 6683,
      "anish": 6684,
      "ĠKey": 6685,
      "war": 6686,
      "Ø§": 6687,
      "Ġeducational": 6688,
      "Ġdollars": 6689,
      "Ġgoods": 6690,
      "Ġcircumstances": 6691,
      "ĠHy": 6692,
      "Ġselling": 6693,
      "ĠLuc": 6694,
      "Ġalgorith": 6695,
      "Ġaid": 6696,
      "ĠOl": 6697,
      "izer": 6698,
      "Ġresolution": 6699,
      "kes": 6700,
      "Ġdiscl": 6701,
      "ATE": 6702,
      "Ġcrew": 6703,
      "fin": 6704,
      "Ġprove": 6705,
      "ĠCreat": 6706,
      "Ġauthors": 6707,
      "BI": 6708,
      "Ġdrugs": 6709,
      "Ġinfo": 6710,
      "Ġadvis": 6711,
      "Ġcandidates": 6712,
      "Ġancient": 6713,
      "olit": 6714,
      "Ġiron": 6715,
      "ifts": 6716,
      "ĠSupport": 6717,
      "lient": 6718,
      "Ġexecut": 6719,
      "ĠIraq": 6720,
      "ĠGar": 6721,
      "ĠSP": 6722,
      "foot": 6723,
      "king": 6724,
      "Ġthick": 6725,
      "anges": 6726,
      "Ġmargin": 6727,
      "car": 6728,
      "Request": 6729,
      "Ġacknow": 6730,
      "ĠWin": 6731,
      "ossible": 6732,
      "orters": 6733,
      "ĠCross": 6734,
      "Ġride": 6735,
      "enced": 6736,
      "Ġcontrast": 6737,
      "Ġemployee": 6738,
      "ĠAri": 6739,
      "Ġbag": 6740,
      "ĠContact": 6741,
      "Ġstrategies": 6742,
      "actory": 6743,
      "Ġfavour": 6744,
      "}$,": 6745,
      "/>": 6746,
      "Ġdomain": 6747,
      "oral": 6748,
      "from": 6749,
      "DS": 6750,
      "Ġappearance": 6751,
      ".;": 6752,
      "sim": 6753,
      "Ġindeed": 6754,
      "Ġattacks": 6755,
      "53": 6756,
      "Ġforg": 6757,
      "Comp": 6758,
      "night": 6759,
      "vec": 6760,
      "Ð¾Ðº": 6761,
      "Ġsolar": 6762,
      "ĠDid": 6763,
      "ĠCopy": 6764,
      "ounter": 6765,
      "ĠHand": 6766,
      "water": 6767,
      "Ġimplementation": 6768,
      "ĠDivision": 6769,
      "ello": 6770,
      "legal": 6771,
      "php": 6772,
      "Ġassets": 6773,
      "Ġreject": 6774,
      "osc": 6775,
      "Ġedition": 6776,
      "Ġicon": 6777,
      "Ġexpensive": 6778,
      "ĠBritain": 6779,
      "Ġdistinct": 6780,
      "}(\\": 6781,
      "kin": 6782,
      "Ġconfirmed": 6783,
      "Ġmere": 6784,
      "Ġconsumer": 6785,
      "Ġdecor": 6786,
      "\"></": 6787,
      "ĠColumb": 6788,
      "Ġconfidence": 6789,
      "Ġimproved": 6790,
      "Ġcompr": 6791,
      "ĠNOT": 6792,
      "';": 6793,
      "Ġsevere": 6794,
      "ĠÐ·Ð°": 6795,
      "ĠRight": 6796,
      "osite": 6797,
      "Ġsigns": 6798,
      "Ġturns": 6799,
      "Ġdefinition": 6800,
      "Ġsubsequ": 6801,
      "ponse": 6802,
      "Ġzero": 6803,
      "Ġengineering": 6804,
      "Ġbelieved": 6805,
      "olds": 6806,
      "mat": 6807,
      "ĠDigital": 6808,
      "zer": 6809,
      "Ġgender": 6810,
      "UM": 6811,
      "Ġguests": 6812,
      "Ġbehavi": 6813,
      "Ġconvert": 6814,
      "ĠGames": 6815,
      "Form": 6816,
      "ĠFed": 6817,
      "Ġstopped": 6818,
      "onic": 6819,
      "ĠGovern": 6820,
      "person": 6821,
      "Ġenable": 6822,
      "Ġcart": 6823,
      "Ġsister": 6824,
      "Ġparameters": 6825,
      "ĠYet": 6826,
      "Ġsuit": 6827,
      "non": 6828,
      "Ġ~": 6829,
      "ĠAS": 6830,
      "Ġrooms": 6831,
      "Ġinvolve": 6832,
      "2014": 6833,
      "asp": 6834,
      "Ġchosen": 6835,
      "Ġaccepted": 6836,
      "law": 6837,
      "Ġperman": 6838,
      "ĠJackson": 6839,
      "Ġworse": 6840,
      "51": 6841,
      "2015": 6842,
      "ĠHenry": 6843,
      "Ġdescribe": 6844,
      "Ġstudio": 6845,
      "Ġfee": 6846,
      "ĠNight": 6847,
      "Ġdangerous": 6848,
      "ĠEgypt": 6849,
      "ĠRest": 6850,
      "Ġveter": 6851,
      "ĠMaybe": 6852,
      "Ġstatements": 6853,
      "Ġinvestors": 6854,
      "Ġextended": 6855,
      "Ġ33": 6856,
      "umer": 6857,
      "ĠOR": 6858,
      "Ġemployment": 6859,
      "Ġdecade": 6860,
      "Ġyes": 6861,
      "pass": 6862,
      "Ġworry": 6863,
      "othe": 6864,
      "uma": 6865,
      "ĠLittle": 6866,
      "My": 6867,
      "gent": 6868,
      "Ġagencies": 6869,
      "Ġscr": 6870,
      "Ġcharged": 6871,
      "dy": 6872,
      "Ġast": 6873,
      "Ġrepresents": 6874,
      "Ġsitting": 6875,
      "ĠDar": 6876,
      "ĠKnow": 6877,
      "Fr": 6878,
      "Ġportion": 6879,
      "ÑĨÐ¸": 6880,
      "Of": 6881,
      "Â·": 6882,
      "ĠCatholic": 6883,
      "Ġmail": 6884,
      "Ġconsumers": 6885,
      "ĠMult": 6886,
      "Ġcooper": 6887,
      "ĠBal": 6888,
      "athan": 6889,
      "java": 6890,
      "Ġrecognized": 6891,
      "Ġok": 6892,
      "Ġloan": 6893,
      "Ġcourses": 6894,
      "Ġterrit": 6895,
      "esome": 6896,
      "uls": 6897,
      "Ġfigures": 6898,
      "Ġupper": 6899,
      "ĠCurrent": 6900,
      "osophy": 6901,
      "Ġpure": 6902,
      "merce": 6903,
      "Ġalt": 6904,
      "Ġ37": 6905,
      "Ġproperly": 6906,
      "ĠCost": 6907,
      "bridge": 6908,
      "ĠMean": 6909,
      "Ġends": 6910,
      "Ġplanned": 6911,
      "Ġdram": 6912,
      "ĠWhether": 6913,
      "Ġremind": 6914,
      "abeth": 6915,
      "Ġphen": 6916,
      "52": 6917,
      "Ġtherapy": 6918,
      "Ġdefe": 6919,
      "ĠSouthern": 6920,
      "Ġatmosp": 6921,
      "Ġconsidering": 6922,
      "PC": 6923,
      "Ġlayer": 6924,
      "Ġestimated": 6925,
      "ĠSus": 6926,
      "Ġfees": 6927,
      "Ġstores": 6928,
      "Ġshock": 6929,
      "ĠItalian": 6930,
      "Ġspeaking": 6931,
      "Ġourselves": 6932,
      "ĠCivil": 6933,
      "input": 6934,
      "ĠLi": 6935,
      "ĠMA": 6936,
      "ersion": 6937,
      "Ġ38": 6938,
      "Ġfiled": 6939,
      "asters": 6940,
      "Ġsteel": 6941,
      "born": 6942,
      "\\,": 6943,
      "esterday": 6944,
      "Ġstone": 6945,
      "ighter": 6946,
      "secut": 6947,
      "Ġ},": 6948,
      "ĠVideo": 6949,
      "lishing": 6950,
      "Ġtight": 6951,
      "iti": 6952,
      "Ġowned": 6953,
      "Ð¼Ð¸": 6954,
      "Ġ48": 6955,
      "Ġinterface": 6956,
      "ircraft": 6957,
      "ĠKingdom": 6958,
      "ĠTurn": 6959,
      "Ġmuseum": 6960,
      "LA": 6961,
      "Ġcloser": 6962,
      "Ġbroken": 6963,
      "CD": 6964,
      "Ġorders": 6965,
      "Ġscholars": 6966,
      "Ġplanet": 6967,
      "Ġnative": 6968,
      "Ġconcert": 6969,
      "Ġpractical": 6970,
      "Ġben": 6971,
      "ESS": 6972,
      "Ġreceiving": 6973,
      "Ġequival": 6974,
      "Ġrelative": 6975,
      "Ġelectronic": 6976,
      "ĠDisney": 6977,
      "Ġwave": 6978,
      "Ġtwice": 6979,
      "Ġworldwide": 6980,
      "Ġexternal": 6981,
      "ĠRa": 6982,
      "Ġring": 6983,
      "Ġdesire": 6984,
      "Ġstret": 6985,
      "Ġmaintenance": 6986,
      "Ġsufficient": 6987,
      "creen": 6988,
      "ync": 6989,
      "ĠÑĩ": 6990,
      "âĢ²": 6991,
      "Event": 6992,
      "Ġspaces": 6993,
      "Ġvul": 6994,
      "ĠPrime": 6995,
      "Ġguard": 6996,
      "Ġlicense": 6997,
      "rooms": 6998,
      "iform": 6999,
      "ĠPrevious": 7000,
      "ĠForce": 7001,
      "ĠMov": 7002,
      "Ġfighting": 7003,
      "ĠFrancisco": 7004,
      "Or": 7005,
      "ĠFair": 7006,
      "Ġabuse": 7007,
      "TC": 7008,
      "Ġneighborhood": 7009,
      "Ġnewsp": 7010,
      "iest": 7011,
      "Ġdiverse": 7012,
      "ibilities": 7013,
      "eries": 7014,
      "Ġroof": 7015,
      "Ġliqu": 7016,
      "ĠSpanish": 7017,
      "Ġprotein": 7018,
      "elle": 7019,
      "Ġteach": 7020,
      "Def": 7021,
      "Ġentered": 7022,
      "Ġsuggested": 7023,
      "Not": 7024,
      "razil": 7025,
      "Ġhun": 7026,
      "chi": 7027,
      "Ã¶r": 7028,
      "Ġresulting": 7029,
      "ĠSupreme": 7030,
      "Ġped": 7031,
      "Ġafternoon": 7032,
      "Ġacid": 7033,
      "Ġplot": 7034,
      "color": 7035,
      "Ġhonor": 7036,
      "Ġshopping": 7037,
      "Ġmoments": 7038,
      "Äį": 7039,
      "Ġdebate": 7040,
      "Ġegg": 7041,
      "ĠMatt": 7042,
      "Ġbeach": 7043,
      "ando": 7044,
      "lected": 7045,
      "Ġ``": 7046,
      "ĠQueen": 7047,
      "ĠThough": 7048,
      "Ġdelay": 7049,
      "ĠFun": 7050,
      "Ġliterature": 7051,
      "Ġsettings": 7052,
      "apes": 7053,
      "exp": 7054,
      "FF": 7055,
      "97": 7056,
      "ether": 7057,
      "Ġregions": 7058,
      "Ġspoke": 7059,
      "Ġurban": 7060,
      "Ġrecommended": 7061,
      "ĠEngineering": 7062,
      "ĠEliz": 7063,
      "Ãł": 7064,
      "Ġnetworks": 7065,
      "ĠPage": 7066,
      "Don": 7067,
      "Ġfriendly": 7068,
      "cohol": 7069,
      "Ġcoal": 7070,
      "98": 7071,
      "Image": 7072,
      "Ġod": 7073,
      "ĠWhich": 7074,
      "true": 7075,
      "Ġrough": 7076,
      "grade": 7077,
      "bsp": 7078,
      "ĠEnt": 7079,
      "Ġcycle": 7080,
      "ansas": 7081,
      "Service": 7082,
      "ĠSaf": 7083,
      "uality": 7084,
      "Ġpartnership": 7085,
      "ĠPR": 7086,
      "rends": 7087,
      "ĠCle": 7088,
      "Ġaudio": 7089,
      "ĠZeal": 7090,
      "That": 7091,
      "Ġencourage": 7092,
      "Ġwidth": 7093,
      "Ed": 7094,
      "Ġprovider": 7095,
      "Ġoccasion": 7096,
      "Ġtelling": 7097,
      "Ġfellow": 7098,
      "Ġassessment": 7099,
      "Ġenhance": 7100,
      "Ġnegoti": 7101,
      "ĠLocal": 7102,
      "ĠPakistan": 7103,
      "ĠCas": 7104,
      "ĠSearch": 7105,
      "Ġriver": 7106,
      "Ġbuying": 7107,
      "Ġlux": 7108,
      "ormal": 7109,
      "sem": 7110,
      "cor": 7111,
      "obs": 7112,
      "Ġconsc": 7113,
      "Ġveget": 7114,
      "Ġeffectively": 7115,
      "Ġwest": 7116,
      "ira": 7117,
      "ÐµÐ´": 7118,
      "Ġoriginally": 7119,
      "Ġarms": 7120,
      "orough": 7121,
      "Ġconsistent": 7122,
      "Ġmurder": 7123,
      "ĠMichigan": 7124,
      "tra": 7125,
      "ĠMS": 7126,
      "Ġnode": 7127,
      "Ġinnovative": 7128,
      "ĠDub": 7129,
      "erman": 7130,
      "ĠFig": 7131,
      "Ġhat": 7132,
      "ĠMeet": 7133,
      "Ġgenerated": 7134,
      "bal": 7135,
      "Ġexists": 7136,
      "Ġroot": 7137,
      "Ġemotional": 7138,
      "[]": 7139,
      "Ġreporting": 7140,
      "ads": 7141,
      "Ġdirected": 7142,
      "ĠCoast": 7143,
      "Ġfacts": 7144,
      "ĠFoot": 7145,
      "Ġvictory": 7146,
      "Ġmand": 7147,
      "Ġ1998": 7148,
      "Ġhousehold": 7149,
      "ĠDate": 7150,
      "rog": 7151,
      "ĠPacific": 7152,
      "ãĥ": 7153,
      "Ġdepth": 7154,
      "\").": 7155,
      "TA": 7156,
      "ĠEth": 7157,
      "gun": 7158,
      "Hand": 7159,
      "Ġcolors": 7160,
      "%)": 7161,
      "ĠRepublican": 7162,
      "Ġadm": 7163,
      "arian": 7164,
      "Ġdinner": 7165,
      "inte": 7166,
      "Ġprogramme": 7167,
      "Ġextensive": 7168,
      "ĠDonald": 7169,
      "ÑģÑı": 7170,
      "Ġlegislation": 7171,
      "ĠTaylor": 7172,
      "orry": 7173,
      "Ġdepending": 7174,
      "ĠHom": 7175,
      "ĠLtd": 7176,
      "gener": 7177,
      "Ġfeatured": 7178,
      "umin": 7179,
      "ras": 7180,
      "Ġassign": 7181,
      "osa": 7182,
      "Ġtrig": 7183,
      "iki": 7184,
      "Ġalleged": 7185,
      "ifier": 7186,
      "Ġboost": 7187,
      "ĠGeorgia": 7188,
      "Up": 7189,
      "Ġcollaboration": 7190,
      "ĠGirl": 7191,
      "ogy": 7192,
      "Ġcampus": 7193,
      "Ġfaster": 7194,
      "CS": 7195,
      "Ġmouth": 7196,
      "Ġinnovation": 7197,
      "uce": 7198,
      "Ġarts": 7199,
      "Ġexpressed": 7200,
      "NS": 7201,
      "Ġdefine": 7202,
      "iro": 7203,
      "ĠConf": 7204,
      "Ġadult": 7205,
      "Ġhappening": 7206,
      "Ġintelligence": 7207,
      "ĠFinancial": 7208,
      "Ġprocedure": 7209,
      "ĠZealand": 7210,
      "Ġvo": 7211,
      "ante": 7212,
      "orem": 7213,
      "61": 7214,
      "Bu": 7215,
      "ĠStudents": 7216,
      "ĠWat": 7217,
      "ĠHard": 7218,
      "adow": 7219,
      "rate": 7220,
      "Ġphotograph": 7221,
      "Ġhouses": 7222,
      "Ġingred": 7223,
      "illy": 7224,
      "ĠStory": 7225,
      "Ġregister": 7226,
      "Ġcheap": 7227,
      "ĠRom": 7228,
      "ĠTerm": 7229,
      "Ġauto": 7230,
      "ĠUr": 7231,
      "Ġrecovery": 7232,
      "Ġcomprehensive": 7233,
      "Ġrisks": 7234,
      "Ġthread": 7235,
      "ĠControl": 7236,
      "ĠHistor": 7237,
      "Ġprepare": 7238,
      "ĠWild": 7239,
      "ghan": 7240,
      "Ġongoing": 7241,
      "Ġusual": 7242,
      "Ġjudge": 7243,
      "ylv": 7244,
      "Ġcontemporary": 7245,
      "Ġsurrounding": 7246,
      "Ġtaste": 7247,
      "ĠAndroid": 7248,
      "Ġtough": 7249,
      "holders": 7250,
      "ulf": 7251,
      "''": 7252,
      "Ġearned": 7253,
      "Ġtips": 7254,
      "Ġmine": 7255,
      "Ġregulations": 7256,
      "ĠBrook": 7257,
      "Ġsuccessfully": 7258,
      "Ġfly": 7259,
      "Ġstorm": 7260,
      "ĠNa": 7261,
      "Ġincident": 7262,
      "Item": 7263,
      "Ġmal": 7264,
      "Ġteen": 7265,
      "ĠMill": 7266,
      "Ġserves": 7267,
      "ĠGuide": 7268,
      "Ã¼r": 7269,
      "Ġmillions": 7270,
      "ugh": 7271,
      "pire": 7272,
      "yers": 7273,
      "Ġremark": 7274,
      "tes": 7275,
      "Ġforth": 7276,
      "Ġtalent": 7277,
      "Ġconfirm": 7278,
      "ĠIII": 7279,
      "ĠCirc": 7280,
      "Ġreferred": 7281,
      "Ġ34": 7282,
      "Ġframework": 7283,
      "Ġ>>": 7284,
      "Ġ1980": 7285,
      "oding": 7286,
      "ĠIl": 7287,
      "ĠPsych": 7288,
      "ĠOrig": 7289,
      "mega": 7290,
      "Ġrub": 7291,
      "vare": 7292,
      "Ġdebut": 7293,
      "Conn": 7294,
      "Ġju": 7295,
      "bra": 7296,
      "ĠAction": 7297,
      "Ġtopics": 7298,
      "Ġshooting": 7299,
      "Ġcro": 7300,
      "eqref": 7301,
      "ãĤ": 7302,
      "Read": 7303,
      "Ġvast": 7304,
      "Ġcouncil": 7305,
      "Ġisol": 7306,
      "ĠEs": 7307,
      "ĠSeason": 7308,
      "ĠNorthern": 7309,
      "ĠSciences": 7310,
      "ĠStill": 7311,
      "ĠAsh": 7312,
      "Ġguitar": 7313,
      "ĠJr": 7314,
      "kt": 7315,
      "ĠImp": 7316,
      "Ġroles": 7317,
      "63": 7318,
      "Ġbusy": 7319,
      "Ġtaught": 7320,
      "ĠDou": 7321,
      "Ġparticipate": 7322,
      "ĠTri": 7323,
      "Ġpregn": 7324,
      "erves": 7325,
      "Ġtotally": 7326,
      "Ġscheme": 7327,
      "Ġfacing": 7328,
      "Ġincreases": 7329,
      "hus": 7330,
      "Ġsurprise": 7331,
      "Ġlie": 7332,
      "ĠRam": 7333,
      "ĠPut": 7334,
      "Ġimagine": 7335,
      "ito": 7336,
      "ela": 7337,
      "Ġexception": 7338,
      "rav": 7339,
      "flow": 7340,
      "ĠQuest": 7341,
      "ĠBrazil": 7342,
      "ĠĠĠĠĠĠĠĠĠĠĠĠĠĠĠĠĠĠĠĠĠĠĠĠĠĠĠ": 7343,
      "Ġrealize": 7344,
      "Ġgod": 7345,
      "Ġinstalled": 7346,
      "Ġextent": 7347,
      "ÑĢÑĥ": 7348,
      "ellect": 7349,
      "Ġsad": 7350,
      "Ġ};": 7351,
      "Ãº": 7352,
      "TER": 7353,
      "Ġupdates": 7354,
      "Ġassume": 7355,
      "Ġexperiment": 7356,
      "Ġpossibility": 7357,
      "ima": 7358,
      "Ġune": 7359,
      "redit": 7360,
      "je": 7361,
      "Over": 7362,
      "Ġmanufacturing": 7363,
      "Ġstands": 7364,
      "Ġremained": 7365,
      "ĠClin": 7366,
      "quare": 7367,
      "Ġbon": 7368,
      "ĠFac": 7369,
      "ĠSea": 7370,
      "ĠStan": 7371,
      "vely": 7372,
      "Ġimpossible": 7373,
      "ĠNick": 7374,
      "child": 7375,
      "EA": 7376,
      "ĠManager": 7377,
      "Ġmessages": 7378,
      "tab": 7379,
      "ĠRay": 7380,
      "Ġbigger": 7381,
      "Ġinstrument": 7382,
      "Ġunderst": 7383,
      "Ġreplace": 7384,
      "Ġpoly": 7385,
      "Ġcounty": 7386,
      "aron": 7387,
      "nbsp": 7388,
      "current": 7389,
      "acter": 7390,
      "issions": 7391,
      "ashed": 7392,
      "Ġgro": 7393,
      "ĠBern": 7394,
      "Ġbanks": 7395,
      "etry": 7396,
      "ĠSon": 7397,
      "BO": 7398,
      "Ġdegrees": 7399,
      "Bl": 7400,
      "Ġmenu": 7401,
      "Ġexpertise": 7402,
      "ĠRen": 7403,
      "Americ": 7404,
      "ells": 7405,
      "Delta": 7406,
      "spec": 7407,
      "TR": 7408,
      "Ġcolle": 7409,
      "Ġsymptoms": 7410,
      "ĠSuch": 7411,
      "ifies": 7412,
      "nger": 7413,
      "ĠBooks": 7414,
      "xi": 7415,
      "ĠHotel": 7416,
      "Ð¾Ð±": 7417,
      "ĠHun": 7418,
      "Ġpaying": 7419,
      "Ġremote": 7420,
      "ĠKorea": 7421,
      "ĠPoint": 7422,
      "Ġbodies": 7423,
      "Ġcompens": 7424,
      "mann": 7425,
      "Ġtrading": 7426,
      "yth": 7427,
      "anger": 7428,
      "ĠAssist": 7429,
      "ĠOhio": 7430,
      "////////": 7431,
      "Ġsupports": 7432,
      "utch": 7433,
      "Ġhealthcare": 7434,
      "Ġsi": 7435,
      "Ġleague": 7436,
      "duction": 7437,
      "ribe": 7438,
      "ĠJenn": 7439,
      "icken": 7440,
      "inent": 7441,
      "Ġ39": 7442,
      "Ġefficiency": 7443,
      "roph": 7444,
      "ko": 7445,
      "ĠRetrieved": 7446,
      "}}\\": 7447,
      "ĠFOR": 7448,
      "Ġevolution": 7449,
      "wan": 7450,
      "Ġanywhere": 7451,
      "onym": 7452,
      "inton": 7453,
      "Ġchapter": 7454,
      "ji": 7455,
      "Ġpersons": 7456,
      "Ġspin": 7457,
      "ĠDemocratic": 7458,
      "Ġsuc": 7459,
      "Ġwinner": 7460,
      "Ġrepair": 7461,
      "eqn": 7462,
      "Ġmel": 7463,
      "Ġgrown": 7464,
      "à¸": 7465,
      "Ġwarn": 7466,
      "ĠFred": 7467,
      "Ġsuggests": 7468,
      "ruption": 7469,
      "Ġmodule": 7470,
      "Ġwindows": 7471,
      "Ġcovers": 7472,
      "Ġcolour": 7473,
      "ĠBrian": 7474,
      "())": 7475,
      "Ġpassing": 7476,
      "Ġachieved": 7477,
      "Ġfasc": 7478,
      "ĠVe": 7479,
      "Ġstructures": 7480,
      "Ġboys": 7481,
      "Ġfeedback": 7482,
      "enger": 7483,
      "ĠKenn": 7484,
      "ila": 7485,
      "ĠNS": 7486,
      "Ġelig": 7487,
      "Ġplastic": 7488,
      "Ġintent": 7489,
      "oir": 7490,
      "agues": 7491,
      "star": 7492,
      "ĠAp": 7493,
      "84": 7494,
      "ĠRon": 7495,
      "Ġexpansion": 7496,
      "Ġreligion": 7497,
      "Ġ$$": 7498,
      "Ġvary": 7499,
      "inson": 7500,
      "des": 7501,
      "|\\": 7502,
      "Ġ);": 7503,
      "ĠPerform": 7504,
      "ĠBuilding": 7505,
      "then": 7506,
      "ĠRef": 7507,
      "Ġfounded": 7508,
      "Ð¸Ð½": 7509,
      "ĠWord": 7510,
      "ulous": 7511,
      "FC": 7512,
      "Ġhelpful": 7513,
      "Ġ75": 7514,
      "ints": 7515,
      "abet": 7516,
      "ĠSher": 7517,
      "anna": 7518,
      "Ġrelation": 7519,
      "ĠRun": 7520,
      "ĠDownload": 7521,
      "ilton": 7522,
      "Ġadvertising": 7523,
      "ĠÐľ": 7524,
      "oking": 7525,
      "Ġunable": 7526,
      "ĠMu": 7527,
      "proof": 7528,
      "ĠDaily": 7529,
      "Ġautomatically": 7530,
      "roller": 7531,
      "onto": 7532,
      "ĠCook": 7533,
      "Ġoccurred": 7534,
      "Ġtalks": 7535,
      "Ġvaluable": 7536,
      "Log": 7537,
      "lyn": 7538,
      "uling": 7539,
      "ls": 7540,
      "Tube": 7541,
      "Ġevol": 7542,
      "onav": 7543,
      "ĠOx": 7544,
      "Ġmixed": 7545,
      "ĠSat": 7546,
      "ĠLes": 7547,
      "that": 7548,
      "Config": 7549,
      "Ġvert": 7550,
      "front": 7551,
      "Ġparking": 7552,
      "max": 7553,
      "Ġpit": 7554,
      "Ġpresentation": 7555,
      "Ġtypical": 7556,
      "ĠIss": 7557,
      "aug": 7558,
      "wa": 7559,
      "Ġprivacy": 7560,
      "ĠTax": 7561,
      "ĠLin": 7562,
      "Ġgenerate": 7563,
      "ican": 7564,
      "acts": 7565,
      "Ġworst": 7566,
      "ĠRod": 7567,
      "Ġreasonable": 7568,
      "ali": 7569,
      "ailed": 7570,
      "Ġboat": 7571,
      "Ġstood": 7572,
      "apped": 7573,
      "Ġattrib": 7574,
      "uan": 7575,
      "ĠElizabeth": 7576,
      "Ġcollected": 7577,
      "62": 7578,
      "Ġsurgery": 7579,
      "Ġcabin": 7580,
      "scale": 7581,
      "Code": 7582,
      "Ġoch": 7583,
      "Ġstrategic": 7584,
      "Ġfrequently": 7585,
      "Ġentertainment": 7586,
      "enda": 7587,
      "ĠNever": 7588,
      "Ġsequence": 7589,
      "Ġmeetings": 7590,
      "Ġtrouble": 7591,
      "Ġultimately": 7592,
      "Å¡": 7593,
      "Ġclosely": 7594,
      "ĠSir": 7595,
      "Ġtou": 7596,
      "lights": 7597,
      "ĠFox": 7598,
      "71": 7599,
      "Ġtwenty": 7600,
      "Ġclaimed": 7601,
      "Ġswim": 7602,
      "enth": 7603,
      "Ġjoy": 7604,
      "tilde": 7605,
      "start": 7606,
      "ĠWel": 7607,
      "ĠInstagram": 7608,
      "gely": 7609,
      "ĠSC": 7610,
      "Ġproviders": 7611,
      "ĠIrish": 7612,
      "Ġvulner": 7613,
      "Ġ00": 7614,
      "Ġsustainable": 7615,
      "yr": 7616,
      "ensus": 7617,
      "Ġcapable": 7618,
      "raphics": 7619,
      "Ġfantastic": 7620,
      "anes": 7621,
      "utation": 7622,
      "Ġagents": 7623,
      "Ġjava": 7624,
      "72": 7625,
      "oz": 7626,
      "Ġawareness": 7627,
      "Ġprinciples": 7628,
      "PD": 7629,
      "ĠLabor": 7630,
      "aine": 7631,
      "Ġchoices": 7632,
      "Ġhur": 7633,
      "ĠCopyright": 7634,
      "Equ": 7635,
      "Ġagric": 7636,
      "psilon": 7637,
      "ĠOrder": 7638,
      "Ġprocedures": 7639,
      "Ġincreasingly": 7640,
      "Ġweapons": 7641,
      "Ġempty": 7642,
      "Ġeating": 7643,
      "Pl": 7644,
      "adium": 7645,
      "Ġessay": 7646,
      "teen": 7647,
      "Ġwalls": 7648,
      "RC": 7649,
      "ĠKeep": 7650,
      "raine": 7651,
      "Ġformal": 7652,
      "iversary": 7653,
      "ÑģÑĮ": 7654,
      "ĠAdministration": 7655,
      "ĠTal": 7656,
      "cr": 7657,
      "ĠComput": 7658,
      "Node": 7659,
      "Ġexistence": 7660,
      "ĠRyan": 7661,
      "ĠViet": 7662,
      "ĠUnivers": 7663,
      "ĠAnth": 7664,
      "Ġaircraft": 7665,
      "bro": 7666,
      "Ġturning": 7667,
      "Ġextract": 7668,
      "profit": 7669,
      "lets": 7670,
      "Ġlatter": 7671,
      "Ġtrend": 7672,
      "Ġupcoming": 7673,
      "Ġsucceed": 7674,
      "Ġ1997": 7675,
      "Ġhorse": 7676,
      "ĠMach": 7677,
      "Ġacting": 7678,
      "Ġbrands": 7679,
      "Ġscientists": 7680,
      "};": 7681,
      "Element": 7682,
      "Ġ1996": 7683,
      "LS": 7684,
      "ĠJersey": 7685,
      "ilipp": 7686,
      "Ġdesigns": 7687,
      "unicip": 7688,
      "ĠBon": 7689,
      "Ġkinds": 7690,
      "essed": 7691,
      "open": 7692,
      "ĠMethod": 7693,
      "Ġhall": 7694,
      "uzz": 7695,
      "Ġentreprene": 7696,
      "Ġfacilit": 7697,
      "Ġstreets": 7698,
      "73": 7699,
      "Ġfo": 7700,
      "Ġfinds": 7701,
      "Ġvictims": 7702,
      "][": 7703,
      "config": 7704,
      "Ġawarded": 7705,
      "ĠBul": 7706,
      "Ġhumans": 7707,
      "Ġconserv": 7708,
      "ÃŃa": 7709,
      "Ġuncertain": 7710,
      "Ġsum": 7711,
      "Ġcrowd": 7712,
      "ĠSn": 7713,
      "){": 7714,
      "ĠÐ¿ÑĢ": 7715,
      "hire": 7716,
      "she": 7717,
      "Ġcompetitive": 7718,
      "ificate": 7719,
      "Ġtab": 7720,
      "ĠSource": 7721,
      "Ġhistoric": 7722,
      "gov": 7723,
      "Ġvariable": 7724,
      "Ġdynamic": 7725,
      "Ġguest": 7726,
      "Ġbasket": 7727,
      "asts": 7728,
      "Ġsuitable": 7729,
      "Ġeast": 7730,
      "Ġdesk": 7731,
      "2013": 7732,
      "ĠTravel": 7733,
      "Ġincredible": 7734,
      "ĠAdam": 7735,
      "ONT": 7736,
      "Ġknowing": 7737,
      "________": 7738,
      "ĠDun": 7739,
      "news": 7740,
      "Ġacts": 7741,
      "Ġmissed": 7742,
      "Ġcos": 7743,
      "ĠRadio": 7744,
      "iously": 7745,
      "vi": 7746,
      "acking": 7747,
      "endar": 7748,
      "rient": 7749,
      "Ġ01": 7750,
      "ureau": 7751,
      "Ġmagazine": 7752,
      "Ġmainly": 7753,
      "ĠEvent": 7754,
      "Ġresistance": 7755,
      "ÑĹ": 7756,
      "stone": 7757,
      "ennis": 7758,
      "Ġsole": 7759,
      "ĠBlog": 7760,
      "ĠSoft": 7761,
      "weight": 7762,
      "ĠTheatre": 7763,
      "Ġattorney": 7764,
      "cha": 7765,
      "estyle": 7766,
      "Phone": 7767,
      "oval": 7768,
      "Ġlinked": 7769,
      "Ġpatterns": 7770,
      "Ġletters": 7771,
      "Ġordered": 7772,
      "Ġrepresented": 7773,
      "Ġprofessor": 7774,
      "Ġdoors": 7775,
      "2012": 7776,
      "Ġwidely": 7777,
      "Ġdrivers": 7778,
      "Ġscheduled": 7779,
      "itled": 7780,
      "Ġtail": 7781,
      "ĠLearn": 7782,
      "Ġtech": 7783,
      "Ġfilter": 7784,
      "81": 7785,
      "ĠConnect": 7786,
      ".</": 7787,
      "ÄĻ": 7788,
      "node": 7789,
      "LO": 7790,
      "Ġanswers": 7791,
      "ĠMs": 7792,
      "Ġrevolution": 7793,
      "Ġdiscount": 7794,
      "EG": 7795,
      "Ġathlet": 7796,
      "Ġgraduate": 7797,
      "Ġexport": 7798,
      "Ġaccurate": 7799,
      "Ġcup": 7800,
      "Ġcatal": 7801,
      "Ġlargely": 7802,
      "annels": 7803,
      "ĠArticle": 7804,
      "ulating": 7805,
      "ĠSpain": 7806,
      "Ġpour": 7807,
      "ĠPot": 7808,
      "ĠStaff": 7809,
      "isa": 7810,
      "%.": 7811,
      "title": 7812,
      "Ġindepend": 7813,
      "Ġinner": 7814,
      "umes": 7815,
      "ĠEric": 7816,
      "fa": 7817,
      "ĠVill": 7818,
      "Ġexcess": 7819,
      "Ġspecified": 7820,
      "ĠMah": 7821,
      "Ent": 7822,
      "Ġvirus": 7823,
      "awa": 7824,
      "ĠMir": 7825,
      "Ġstudied": 7826,
      "Ġmedicine": 7827,
      "fill": 7828,
      "Array": 7829,
      "adel": 7830,
      "ĠSym": 7831,
      "Ġexceed": 7832,
      "core": 7833,
      "Ġreduction": 7834,
      "Ġyounger": 7835,
      "inois": 7836,
      "Äħ": 7837,
      "Ġentr": 7838,
      "Ġsky": 7839,
      "Ġcorresponding": 7840,
      "Ġpara": 7841,
      "ĠLow": 7842,
      "ĠFord": 7843,
      "Ġanx": 7844,
      "Ġnurs": 7845,
      "imental": 7846,
      "83": 7847,
      "Ġelected": 7848,
      "Ġrepeated": 7849,
      "Ġaccord": 7850,
      "Ġcomparison": 7851,
      "Ġ1970": 7852,
      "lik": 7853,
      "Ġawards": 7854,
      "Ġvital": 7855,
      "ĠReturn": 7856,
      "Ġcerem": 7857,
      "rovers": 7858,
      "74": 7859,
      "ceived": 7860,
      "Ġprofit": 7861,
      "Ġdropped": 7862,
      "Ã¡n": 7863,
      "onavirus": 7864,
      "Ġlandscape": 7865,
      "mic": 7866,
      "ĠCase": 7867,
      "ĠPract": 7868,
      "udi": 7869,
      "Ġfis": 7870,
      "check": 7871,
      "vy": 7872,
      "ĠCat": 7873,
      "96": 7874,
      "Ġrecording": 7875,
      "Ġactor": 7876,
      "Ġflood": 7877,
      "Ñĺ": 7878,
      "Ġreaction": 7879,
      "RL": 7880,
      "Ġduty": 7881,
      "\"/>": 7882,
      "ampion": 7883,
      "nab": 7884,
      "Ġfruit": 7885,
      "Ġma": 7886,
      "VD": 7887,
      "Ġtested": 7888,
      "inity": 7889,
      "Ps": 7890,
      "ĠLind": 7891,
      "Ġattended": 7892,
      "****************": 7893,
      "Ġbelieves": 7894,
      "ĠLew": 7895,
      "Ġpicked": 7896,
      "rible": 7897,
      "Ġretire": 7898,
      "Ġneut": 7899,
      "ĠAsian": 7900,
      "ĠSong": 7901,
      "Ġdeals": 7902,
      "Ġdivision": 7903,
      "Ġarchitecture": 7904,
      "create": 7905,
      "Ġsin": 7906,
      "Ġprimarily": 7907,
      "Info": 7908,
      "ĠHarry": 7909,
      "ĠBroad": 7910,
      "Ġperfectly": 7911,
      "apore": 7912,
      "ULL": 7913,
      "Message": 7914,
      "Ġbattery": 7915,
      "ĠYouTube": 7916,
      "Ġwearing": 7917,
      "ĠCountry": 7918,
      "Map": 7919,
      "ĠCN": 7920,
      ")$.": 7921,
      "Trans": 7922,
      "rell": 7923,
      "Ġauthen": 7924,
      "Ġapps": 7925,
      "eler": 7926,
      "ĠLas": 7927,
      "Ġplate": 7928,
      "ĠCarl": 7929,
      "reens": 7930,
      "ĠContin": 7931,
      "ĠHaving": 7932,
      "ĠAccount": 7933,
      "Ġextension": 7934,
      "ĠProm": 7935,
      "izz": 7936,
      "300": 7937,
      "Ġfurniture": 7938,
      "Ġtack": 7939,
      "pay": 7940,
      "hemat": 7941,
      "Ġsugar": 7942,
      "Ġvisiting": 7943,
      "Model": 7944,
      "Ġinvent": 7945,
      "object": 7946,
      "Ġimpressive": 7947,
      "Ġregularly": 7948,
      "Ġdiam": 7949,
      "olean": 7950,
      "cling": 7951,
      "Ġmolec": 7952,
      "tw": 7953,
      "ournament": 7954,
      "ĠPalest": 7955,
      "Ġfeaturing": 7956,
      "ĠCateg": 7957,
      "Ġrecognition": 7958,
      "base": 7959,
      "Ġsolve": 7960,
      "VER": 7961,
      "Ġclar": 7962,
      "iral": 7963,
      "Ġrealized": 7964,
      "Ġfindings": 7965,
      "acc": 7966,
      "Ġexposure": 7967,
      "Ġcontributions": 7968,
      "Ġinspect": 7969,
      "appy": 7970,
      "Ġchallenging": 7971,
      "Ġsamples": 7972,
      "lation": 7973,
      "ige": 7974,
      "ĠSwed": 7975,
      "Ġtasks": 7976,
      "ĠdÃ©": 7977,
      "Ġhabit": 7978,
      "}[": 7979,
      "Ġwriters": 7980,
      "Ġoperate": 7981,
      "Ġsight": 7982,
      "ĠUnf": 7983,
      "ben": 7984,
      "agraph": 7985,
      "ĠFile": 7986,
      "ĠModern": 7987,
      "ĠSenior": 7988,
      "Ġnob": 7989,
      "razy": 7990,
      "iary": 7991,
      "ĠImage": 7992,
      "ĠCommon": 7993,
      "icted": 7994,
      "ĠStephen": 7995,
      "ĠGuard": 7996,
      "varepsilon": 7997,
      "Ġelev": 7998,
      "Ġprompt": 7999,
      "Ġdispl": 8000,
      "Ġtill": 8001,
      "gage": 8002,
      "ĠSanta": 8003,
      "ĠMrs": 8004,
      "Ġlosing": 8005,
      "ĠKent": 8006,
      "Ġengage": 8007,
      "Ġpharm": 8008,
      "alo": 8009,
      "Ġreader": 8010,
      "ĠImm": 8011,
      "Ġrelief": 8012,
      "ÐµÐ¹": 8013,
      "Ġfrag": 8014,
      "anguages": 8015,
      "ĠWis": 8016,
      "Ġtemplate": 8017,
      "Ġexplains": 8018,
      "eding": 8019,
      "Ġdisappoint": 8020,
      "uting": 8021,
      "ector": 8022,
      "ĠFarm": 8023,
      "ĠGreek": 8024,
      "Ġzone": 8025,
      "icing": 8026,
      "ĠDO": 8027,
      "Ġcolon": 8028,
      "TV": 8029,
      "bury": 8030,
      "amber": 8031,
      "Ġminister": 8032,
      "Index": 8033,
      "bel": 8034,
      "Table": 8035,
      "ĠNC": 8036,
      "ĠOfficer": 8037,
      "Ġcream": 8038,
      "Ġimmediate": 8039,
      "ÂŃ": 8040,
      "ĠType": 8041,
      "thew": 8042,
      "ĠBa": 8043,
      "Date": 8044,
      "Ġperforming": 8045,
      "quir": 8046,
      "Ġgrade": 8047,
      "Ġpip": 8048,
      "ĠHope": 8049,
      "Ġtruck": 8050,
      "Ġpowers": 8051,
      "een": 8052,
      "athe": 8053,
      "rogen": 8054,
      "Ġguidance": 8055,
      "vol": 8056,
      "db": 8057,
      "ĠED": 8058,
      "aints": 8059,
      "Ġtradition": 8060,
      "ĠDeath": 8061,
      "82": 8062,
      "itals": 8063,
      "cdot": 8064,
      "ogether": 8065,
      "anged": 8066,
      "Ġunknown": 8067,
      "Ġrestaurants": 8068,
      "Ġdelight": 8069,
      "Ġnarrow": 8070,
      "}^{\\": 8071,
      "Ġcontaining": 8072,
      "Ġpayments": 8073,
      "ĠShould": 8074,
      "Ġ1995": 8075,
      "center": 8076,
      "acket": 8077,
      "Ġstim": 8078,
      "ĠSH": 8079,
      "Ġinterior": 8080,
      "They": 8081,
      "ucks": 8082,
      "Ð»ÑĮ": 8083,
      "PM": 8084,
      "Ġcontribute": 8085,
      "Ġstruggle": 8086,
      "Ġrele": 8087,
      "Ġlaugh": 8088,
      "Ġoperator": 8089,
      "arg": 8090,
      "ĠPS": 8091,
      "ĠKat": 8092,
      "Ġplane": 8093,
      "ensed": 8094,
      "Ġunion": 8095,
      "sqrt": 8096,
      "expected": 8097,
      "dated": 8098,
      "ĠFriend": 8099,
      "xx": 8100,
      "ĠInf": 8101,
      "Ġ400": 8102,
      "otation": 8103,
      "ĠName": 8104,
      "ova": 8105,
      "Ġtrained": 8106,
      "Rep": 8107,
      "Ġfundamental": 8108,
      "Ġsrc": 8109,
      "Ġappreciate": 8110,
      "Ġapproval": 8111,
      "ĠBall": 8112,
      "Field": 8113,
      "Ġimprovement": 8114,
      "uffer": 8115,
      "Ġtickets": 8116,
      "Manager": 8117,
      "Ġalongside": 8118,
      "Ġ42": 8119,
      "AND": 8120,
      "IST": 8121,
      "Ġaccessible": 8122,
      "ĠEss": 8123,
      "Ġdiscipl": 8124,
      "ĠLink": 8125,
      "Ġcontribution": 8126,
      "Ġregistration": 8127,
      "endment": 8128,
      "ÑģÐºÐ¸": 8129,
      "version": 8130,
      "ĠCapital": 8131,
      "ĠChapter": 8132,
      "ðŁ": 8133,
      "oker": 8134,
      "Ġ150": 8135,
      "Ġhidden": 8136,
      "ĠMD": 8137,
      "ĠSystems": 8138,
      "ĠHas": 8139,
      "owned": 8140,
      "ĠSarah": 8141,
      "Ġriv": 8142,
      "Ġwheel": 8143,
      "Ġcapture": 8144,
      "Ġcontest": 8145,
      "ordan": 8146,
      "rot": 8147,
      "plete": 8148,
      "Ġsuspect": 8149,
      "Ġreplaced": 8150,
      "ĠÑĢÐ°": 8151,
      "ĠCorporation": 8152,
      "Ġpapers": 8153,
      "missions": 8154,
      "ĠWorks": 8155,
      "Ġproposal": 8156,
      "ĠKevin": 8157,
      "ĠAI": 8158,
      "ĠWas": 8159,
      "folio": 8160,
      "ĠIllinois": 8161,
      "arters": 8162,
      "Ġequivalent": 8163,
      "ĠCov": 8164,
      "Ġclimb": 8165,
      "2011": 8166,
      "Ġratio": 8167,
      "Ġstake": 8168,
      "ĠHou": 8169,
      "away": 8170,
      "Ġmonitoring": 8171,
      "Ġmountain": 8172,
      "Ġlights": 8173,
      "Ġconver": 8174,
      "Ġlift": 8175,
      "Ġintegrated": 8176,
      "Ġyesterday": 8177,
      "Ġinstallation": 8178,
      "ĠRose": 8179,
      "ĠEmer": 8180,
      "Ġengaged": 8181,
      "Ġwalked": 8182,
      "aph": 8183,
      "ologist": 8184,
      "ĠPlace": 8185,
      "rison": 8186,
      "eqnarray": 8187,
      "Ġexpectations": 8188,
      "ĠLA": 8189,
      "Ġtracks": 8190,
      "Ġarrested": 8191,
      "uous": 8192,
      "ĠRog": 8193,
      "ĠCru": 8194,
      "Ġtiss": 8195,
      "Ġcutting": 8196,
      "Ġlies": 8197,
      "Go": 8198,
      "ĠSaint": 8199,
      "ifer": 8200,
      "nce": 8201,
      "ĠGi": 8202,
      "Ġfabric": 8203,
      "Ġengagement": 8204,
      "Ġsplit": 8205,
      "Inst": 8206,
      "aka": 8207,
      "Ġpainting": 8208,
      "ĠNAS": 8209,
      "ĠCapt": 8210,
      "etch": 8211,
      "RS": 8212,
      "Ġmonthly": 8213,
      "Ġfoundation": 8214,
      "Ġalcohol": 8215,
      "ĠBang": 8216,
      "claim": 8217,
      "ĠPlus": 8218,
      "ĠLatin": 8219,
      "Ġ49": 8220,
      "Ġbrown": 8221,
      "ĠScotland": 8222,
      "earing": 8223,
      "Ġanticip": 8224,
      "owa": 8225,
      "bles": 8226,
      "Ġoutdoor": 8227,
      "Ġadds": 8228,
      "Ġdensity": 8229,
      "Ġarmy": 8230,
      "ĠMinistry": 8231,
      "Ġapproaches": 8232,
      "ĠSmall": 8233,
      "orne": 8234,
      "ĠPerhaps": 8235,
      "Ġnoise": 8236,
      "Ġsituations": 8237,
      "ĠChange": 8238,
      "ĠAmong": 8239,
      "Ġcounsel": 8240,
      "ĠNic": 8241,
      "Ġmoves": 8242,
      "Ġwebsites": 8243,
      "ership": 8244,
      "low": 8245,
      "ÄĽ": 8246,
      "Ġbridge": 8247,
      "Ġsick": 8248,
      "ĠArea": 8249,
      "Ġlunch": 8250,
      "ĠChem": 8251,
      "Ġslowly": 8252,
      "Ġorganized": 8253,
      "Ġfrequency": 8254,
      "Ġcommunications": 8255,
      "usal": 8256,
      "Ġpublication": 8257,
      "Ġax": 8258,
      "Ġnearby": 8259,
      "Ġperm": 8260,
      "Ġrecognize": 8261,
      "ĠHollywood": 8262,
      "ixture": 8263,
      "ÃŁ": 8264,
      "Ð»Ñı": 8265,
      "worth": 8266,
      "Ġatmosphere": 8267,
      "Ġpotentially": 8268,
      "ĠBad": 8269,
      "ugin": 8270,
      "pen": 8271,
      "Ġmob": 8272,
      "Ġexplan": 8273,
      "Ġpulled": 8274,
      "ĠĠĠĠĠĠĠĠĠĠ": 8275,
      "ĠCro": 8276,
      "mo": 8277,
      "ĠColorado": 8278,
      "anz": 8279,
      "ĠRh": 8280,
      "ĠPrince": 8281,
      "ĠDavis": 8282,
      "Ġundert": 8283,
      "ĠAgency": 8284,
      "Ġcarefully": 8285,
      "Ġkeeps": 8286,
      "Ġfestival": 8287,
      "Ġinformed": 8288,
      "ĠÑģÑĤ": 8289,
      "Out": 8290,
      "Ġtables": 8291,
      "ĠDead": 8292,
      "Ġq": 8293,
      "Ġenforcement": 8294,
      "Ġ->": 8295,
      "Ġcrucial": 8296,
      "Ġaffordable": 8297,
      "Ġprotest": 8298,
      "VE": 8299,
      "ocolate": 8300,
      "edu": 8301,
      "Ġconstit": 8302,
      "Ġconstantly": 8303,
      "Size": 8304,
      "TT": 8305,
      "How": 8306,
      "ĠSummer": 8307,
      "ĠTer": 8308,
      "ĠSingapore": 8309,
      "ĠRoom": 8310,
      "ni": 8311,
      "Ġstrict": 8312,
      "Ġhyper": 8313,
      "Ġlistening": 8314,
      "Ġnecessarily": 8315,
      "Ġtrav": 8316,
      "prot": 8317,
      "result": 8318,
      "Ġcreates": 8319,
      "ocated": 8320,
      "ĠEastern": 8321,
      "Ġpurchased": 8322,
      "Ġdogs": 8323,
      "Ġunderstood": 8324,
      "Ġfaces": 8325,
      "])": 8326,
      "onder": 8327,
      "Ġspr": 8328,
      "Ġinvited": 8329,
      "Ġparameter": 8330,
      "ĠDa": 8331,
      "ĠHD": 8332,
      "ĠÑĢ": 8333,
      "Ġlimits": 8334,
      "IO": 8335,
      "ĠEconomic": 8336,
      "ista": 8337,
      "ĠBrad": 8338,
      "ĠAge": 8339,
      "Ġinsert": 8340,
      "Ġplatforms": 8341,
      "Ġdates": 8342,
      "ĠFollowing": 8343,
      "Ġnoticed": 8344,
      "Ġwal": 8345,
      "Ġvisited": 8346,
      "ĠModel": 8347,
      "\"\"": 8348,
      "Ġsurprising": 8349,
      "QL": 8350,
      "ez": 8351,
      "Ġpercentage": 8352,
      "ĠÐĲ": 8353,
      "ĠÐĿ": 8354,
      "Ġdiversity": 8355,
      "Ġelections": 8356,
      "burgh": 8357,
      "ĠStock": 8358,
      "Ġappointed": 8359,
      "Ġreliable": 8360,
      "ĠWars": 8361,
      "Ġobviously": 8362,
      "ĠBru": 8363,
      "Ġtag": 8364,
      "Ġneck": 8365,
      "ĠToronto": 8366,
      "Ġskill": 8367,
      "icide": 8368,
      "heim": 8369,
      "Ġsurf": 8370,
      "ĠCla": 8371,
      "ĠBox": 8372,
      "Ġopposite": 8373,
      "ĠPers": 8374,
      "Ġseriously": 8375,
      "lix": 8376,
      "Ġillegal": 8377,
      "lib": 8378,
      "ĠFa": 8379,
      "agen": 8380,
      "orph": 8381,
      "ido": 8382,
      "Ġillness": 8383,
      "Ð½Ñı": 8384,
      "ĠAnton": 8385,
      "ĠMoreover": 8386,
      "ellectual": 8387,
      "Ġdrawn": 8388,
      "Ġliked": 8389,
      "Ġhits": 8390,
      "Ġscored": 8391,
      "ĠAh": 8392,
      "ools": 8393,
      "93": 8394,
      "Ġoutstanding": 8395,
      "Ġ1994": 8396,
      "ĠLic": 8397,
      "Ġsomewhat": 8398,
      "Ġdealing": 8399,
      "vas": 8400,
      "ĠSep": 8401,
      "Ġtea": 8402,
      "ĠEX": 8403,
      "At": 8404,
      "Ġtaxes": 8405,
      "Ġrural": 8406,
      "cue": 8407,
      "ĠPhilipp": 8408,
      "dim": 8409,
      "Ġsalt": 8410,
      "Ġbehalf": 8411,
      "Ġenthus": 8412,
      "Ġsubmit": 8413,
      "ĠSU": 8414,
      "Ġnewly": 8415,
      "...\"": 8416,
      "Ġphenomen": 8417,
      "ĠUnfortunately": 8418,
      "Ġinvolving": 8419,
      "olis": 8420,
      "ĠiPhone": 8421,
      "Ġliquid": 8422,
      "info": 8423,
      "omic": 8424,
      "ĠPen": 8425,
      "ĠKong": 8426,
      "psi": 8427,
      "Ġalleg": 8428,
      "Ġdepends": 8429,
      "ĠTags": 8430,
      "ĠMembers": 8431,
      "ĠDer": 8432,
      "Ġrig": 8433,
      "ylvania": 8434,
      "gi": 8435,
      "ĠBra": 8436,
      "erver": 8437,
      "ounded": 8438,
      "ĠSS": 8439,
      "ĠSem": 8440,
      "Ġneither": 8441,
      "Ġhell": 8442,
      "isition": 8443,
      "Ġprime": 8444,
      "Ġ()": 8445,
      "MC": 8446,
      "Ġbear": 8447,
      "Ġbare": 8448,
      "ĠMajor": 8449,
      "Ġbuff": 8450,
      "ĠSometimes": 8451,
      "api": 8452,
      "Ġconsequences": 8453,
      "sa": 8454,
      "Ġgranted": 8455,
      "Ġtall": 8456,
      "image": 8457,
      "Count": 8458,
      "Ġassociation": 8459,
      "ĠWilson": 8460,
      "Ġawesome": 8461,
      "last": 8462,
      "ensure": 8463,
      "Ġchampions": 8464,
      "Ġtrail": 8465,
      "Act": 8466,
      "Ġcontinuing": 8467,
      "Omega": 8468,
      "Ġboot": 8469,
      "Ġhate": 8470,
      "Ġfairly": 8471,
      "ĠCert": 8472,
      "icket": 8473,
      "Ġinteraction": 8474,
      "PL": 8475,
      "ĠPublished": 8476,
      "Ġ65": 8477,
      "Att": 8478,
      "Ġairport": 8479,
      "Ġdriven": 8480,
      "ĠEditor": 8481,
      "Ġrepresentation": 8482,
      "Ġexclusive": 8483,
      "Ġinjuries": 8484,
      "Ġcelebrate": 8485,
      "Ġversions": 8486,
      "FA": 8487,
      "Ġfiction": 8488,
      "Ġfirms": 8489,
      "Ġcontained": 8490,
      "ials": 8491,
      "Ġadopted": 8492,
      "Ġoutcomes": 8493,
      "ĠAvenue": 8494,
      "Ġsubmitted": 8495,
      "ĠBible": 8496,
      "ĠSite": 8497,
      "ĠField": 8498,
      "Ġsilver": 8499,
      "Ġindicate": 8500,
      "Ġinitiative": 8501,
      "Ġpermanent": 8502,
      "ĠLine": 8503,
      "Ġtechnique": 8504,
      "brid": 8505,
      "Ġheads": 8506,
      "query": 8507,
      "Ġquery": 8508,
      "ĠPH": 8509,
      "Ġfinance": 8510,
      "Ġalign": 8511,
      "DP": 8512,
      "Ġfaculty": 8513,
      "Ġ:=": 8514,
      "ĠDNA": 8515,
      "Ġjur": 8516,
      "Ġsurprised": 8517,
      "Ġpra": 8518,
      "Ġsentence": 8519,
      "Ġscope": 8520,
      "Ð²Ð¸": 8521,
      "Ġdans": 8522,
      "Ġextreme": 8523,
      "member": 8524,
      "Ġbroadcast": 8525,
      "ĠVice": 8526,
      "Ġcontrolled": 8527,
      "Ġdump": 8528,
      "Ġvi": 8529,
      "Ġgal": 8530,
      "System": 8531,
      "pdf": 8532,
      "Ġspiritual": 8533,
      "Ġbranch": 8534,
      "Ġprincipal": 8535,
      "ĠJean": 8536,
      "tle": 8537,
      "Ġlect": 8538,
      "Ġpresents": 8539,
      "2010": 8540,
      "aturally": 8541,
      "ĠCond": 8542,
      "illiant": 8543,
      "Ġoutcome": 8544,
      "ĠBol": 8545,
      "94": 8546,
      "ĠMiller": 8547,
      "bm": 8548,
      "Ġstrike": 8549,
      "making": 8550,
      "Ġcompare": 8551,
      "Ġexhibition": 8552,
      "ĠLiving": 8553,
      "ĠCL": 8554,
      "ĠPartners": 8555,
      "User": 8556,
      "aded": 8557,
      "init": 8558,
      "Ð¾ÑģÑĤ": 8559,
      "una": 8560,
      "ĠPrinc": 8561,
      "ĠRos": 8562,
      "range": 8563,
      "ĠNFL": 8564,
      "Ġorganis": 8565,
      "Ġyards": 8566,
      "Ġgap": 8567,
      "Ġ55": 8568,
      "Ġerrors": 8569,
      "ĠFall": 8570,
      "ALL": 8571,
      "}_{\\": 8572,
      "ĠRecords": 8573,
      "ĠÅ": 8574,
      "ĠYO": 8575,
      "Ġabsor": 8576,
      "Ġintroduction": 8577,
      "Ġrear": 8578,
      "ĠLiter": 8579,
      "ĠJam": 8580,
      "Ġrefuge": 8581,
      "Ġadventure": 8582,
      "ĠHong": 8583,
      "Ġchart": 8584,
      "Ġalive": 8585,
      "Ġtor": 8586,
      "####": 8587,
      "ĠDam": 8588,
      "ĠHelp": 8589,
      "cs": 8590,
      "Ġreward": 8591,
      "ĠMatthew": 8592,
      "oga": 8593,
      "zona": 8594,
      "Ġmeat": 8595,
      "Ġsessions": 8596,
      "ĠFuture": 8597,
      "Ġconvent": 8598,
      "Ġcontrols": 8599,
      "Ġ1960": 8600,
      "Ġdies": 8601,
      "press": 8602,
      "Ġcontrovers": 8603,
      "ĠShort": 8604,
      "overty": 8605,
      "tem": 8606,
      "han": 8607,
      "ĠIde": 8608,
      "bell": 8609,
      "fall": 8610,
      "ĠDark": 8611,
      "Ġdiscrim": 8612,
      "eld": 8613,
      "block": 8614,
      "ĠTech": 8615,
      "Ġconsists": 8616,
      "ĠÐ³Ð¾Ð´": 8617,
      "Ġĉĉĉĉĉ": 8618,
      "BN": 8619,
      "ĠGrant": 8620,
      "Ġending": 8621,
      "Ġcategories": 8622,
      "Ġimproving": 8623,
      "angle": 8624,
      "Ġingredients": 8625,
      "ĠParliament": 8626,
      "Ġbrowser": 8627,
      "aze": 8628,
      "ĠĠĠĠĠĠĠĠĠĠĠĠ": 8629,
      "Ġsuffering": 8630,
      "Ġcompos": 8631,
      "you": 8632,
      "%,": 8633,
      "esh": 8634,
      "Ġbike": 8635,
      "Ġtrends": 8636,
      "Ġterr": 8637,
      "ĠStudy": 8638,
      "Ġmm": 8639,
      "92": 8640,
      "Ġrein": 8641,
      "ĠAfghan": 8642,
      "iami": 8643,
      "Ġlovely": 8644,
      "Ãª": 8645,
      "ĠShare": 8646,
      "util": 8647,
      "Ġmarked": 8648,
      "ĠStudent": 8649,
      "yard": 8650,
      "Ġlinear": 8651,
      "Ġmatrix": 8652,
      "Ġstrongly": 8653,
      "Ġdining": 8654,
      "Ġtalked": 8655,
      "ĠPack": 8656,
      "sylvania": 8657,
      "erning": 8658,
      "Point": 8659,
      "Ġglad": 8660,
      "ython": 8661,
      "riers": 8662,
      "Ġwatched": 8663,
      "Gamma": 8664,
      "Ġdeaths": 8665,
      "rary": 8666,
      "world": 8667,
      "Ġdiseases": 8668,
      "Ġchannels": 8669,
      "Ġprotocol": 8670,
      "itud": 8671,
      "AY": 8672,
      "Ġhopes": 8673,
      "Ġyellow": 8674,
      "Ġjoining": 8675,
      "Ġaffili": 8676,
      "ĠColumbia": 8677,
      "Ġmanaging": 8678,
      "ĠVen": 8679,
      "Ġages": 8680,
      "Ġvit": 8681,
      "Ġsought": 8682,
      "ĠBell": 8683,
      "rypt": 8684,
      "Ġuniform": 8685,
      "Ġtransportation": 8686,
      "Ġmac": 8687,
      "break": 8688,
      "inator": 8689,
      "Ġapartment": 8690,
      "igrants": 8691,
      "Param": 8692,
      "message": 8693,
      "Ġecho": 8694,
      "Ġembr": 8695,
      "Ġsheet": 8696,
      "Ġlegend": 8697,
      "epsilon": 8698,
      "ĠAC": 8699,
      "sect": 8700,
      "Inter": 8701,
      "ĠGolden": 8702,
      "oured": 8703,
      "doi": 8704,
      "ĠSav": 8705,
      "anny": 8706,
      "Ġgovernments": 8707,
      "!!!": 8708,
      "lar": 8709,
      "lers": 8710,
      "Ġgene": 8711,
      "ortion": 8712,
      "aza": 8713,
      "Ġpromise": 8714,
      "Ġthousand": 8715,
      "Ġinstructions": 8716,
      "opher": 8717,
      "Ġescape": 8718,
      "Ġmachines": 8719,
      "len": 8720,
      "alty": 8721,
      "Ġsoil": 8722,
      "heast": 8723,
      "Us": 8724,
      "Ġformation": 8725,
      "ĠDemocrats": 8726,
      "Ġprospect": 8727,
      "Ġorganic": 8728,
      "Ġscenes": 8729,
      "Ġsinger": 8730,
      "ilst": 8731,
      "Ġmagic": 8732,
      "pool": 8733,
      "ĠBand": 8734,
      "ypes": 8735,
      "Ġtum": 8736,
      "hetic": 8737,
      "ailability": 8738,
      "ĠMember": 8739,
      "ĠObject": 8740,
      "Ġvisible": 8741,
      "Ġ64": 8742,
      "Ġfunctional": 8743,
      "She": 8744,
      "ĠTreat": 8745,
      "ĠForeign": 8746,
      "arser": 8747,
      "Ġvaccine": 8748,
      "ĠEarly": 8749,
      "Ġmanif": 8750,
      "Ġein": 8751,
      "Ġticket": 8752,
      "Ġrequests": 8753,
      "cers": 8754,
      "ran": 8755,
      "Ġsoldiers": 8756,
      "Ġsubjects": 8757,
      "Wh": 8758,
      "Ġrising": 8759,
      "Ġconsideration": 8760,
      "Ġchose": 8761,
      "Ġapparently": 8762,
      "Ġbomb": 8763,
      "ĠHo": 8764,
      "Ġhurt": 8765,
      "Ġhasn": 8766,
      "iac": 8767,
      "Ġstable": 8768,
      "craft": 8769,
      "Ġassault": 8770,
      "ĠJosh": 8771,
      "Ġgiant": 8772,
      "Ġcm": 8773,
      "Ġpriority": 8774,
      "Ġoffices": 8775,
      "Ġec": 8776,
      "py": 8777,
      "iffe": 8778,
      "ovation": 8779,
      "vo": 8780,
      "Ġguarantee": 8781,
      "Ġreturning": 8782,
      ")=": 8783,
      "Ġinitially": 8784,
      "Ġbasically": 8785,
      "Ġparticipation": 8786,
      "Ġstd": 8787,
      "ĠCulture": 8788,
      "pie": 8789,
      "main": 8790,
      "caption": 8791,
      "Ġoblig": 8792,
      "wing": 8793,
      "edge": 8794,
      "ĠPur": 8795,
      "roduction": 8796,
      "ĠText": 8797,
      "Ġcharacteristics": 8798,
      "ĠLyn": 8799,
      "Ġaccused": 8800,
      "ĠAz": 8801,
      "achelor": 8802,
      "Ġbroke": 8803,
      "ĠEdward": 8804,
      "ĠGa": 8805,
      "ĠMap": 8806,
      "inking": 8807,
      "Ġstored": 8808,
      "ĠGM": 8809,
      "ĠWithout": 8810,
      "ĠForest": 8811,
      "Ġvoters": 8812,
      "Ġopposition": 8813,
      "ĠRoll": 8814,
      "From": 8815,
      "Do": 8816,
      "Ã©n": 8817,
      "reement": 8818,
      "Ġinject": 8819,
      "Ġindicated": 8820,
      "Ġĉĉĉĉĉĉĉĉ": 8821,
      "pling": 8822,
      "ĠBat": 8823,
      "Ġpublis": 8824,
      "Ġsaved": 8825,
      "option": 8826,
      "91": 8827,
      "Ġtherm": 8828,
      "Ġsouthern": 8829,
      "Ġfraud": 8830,
      "Ġcombat": 8831,
      "Ġdestination": 8832,
      "ĠTry": 8833,
      "sf": 8834,
      "Ġfaced": 8835,
      "Ġ44": 8836,
      "Ġcompliance": 8837,
      "ĠHouston": 8838,
      "PE": 8839,
      "ĠSyn": 8840,
      "ĠJordan": 8841,
      "adelph": 8842,
      "Ġmilk": 8843,
      "Ġpointed": 8844,
      "ĠSM": 8845,
      "Ġfunny": 8846,
      "Ġsolo": 8847,
      "Ġbathroom": 8848,
      "Ġadj": 8849,
      "Ġsections": 8850,
      "Ġloop": 8851,
      "yo": 8852,
      "ori": 8853,
      "det": 8854,
      "Ġwarrant": 8855,
      "Ġtast": 8856,
      "Ġtut": 8857,
      "Ġpermission": 8858,
      "Ĥ¬": 8859,
      "When": 8860,
      "Ġcleaning": 8861,
      "Ġproport": 8862,
      "Ġgent": 8863,
      "Ġconnections": 8864,
      "ĠUt": 8865,
      "ĠNeed": 8866,
      "Ġindustries": 8867,
      "Client": 8868,
      ")$,": 8869,
      "ĠHoly": 8870,
      "Ġmeasured": 8871,
      "Ġbirthday": 8872,
      "ĠKelly": 8873,
      "ĠAst": 8874,
      "Ġvel": 8875,
      "ĠMagazine": 8876,
      "inals": 8877,
      "Ġsees": 8878,
      "ĠBeing": 8879,
      "Ġabandon": 8880,
      "ĠFather": 8881,
      "ned": 8882,
      "ART": 8883,
      "Ġdating": 8884,
      "ÙĦ": 8885,
      "aret": 8886,
      "Ġalert": 8887,
      "ĠVictoria": 8888,
      "owing": 8889,
      "ĠPennsylvania": 8890,
      "OK": 8891,
      "uis": 8892,
      "Ġimplemented": 8893,
      "Ġstrange": 8894,
      "Ġdrama": 8895,
      "ĠTony": 8896,
      "Ġtiny": 8897,
      "Ġappointment": 8898,
      "Ġsegment": 8899,
      "including": 8900,
      "2021": 8901,
      "unc": 8902,
      "inch": 8903,
      "Ġobjective": 8904,
      "Ġcasino": 8905,
      "Ġpremium": 8906,
      "iot": 8907,
      "ĠGreg": 8908,
      "!--": 8909,
      "Ġguidelines": 8910,
      "Ġnic": 8911,
      "ĠBase": 8912,
      "ĠSpirit": 8913,
      "ĠGro": 8914,
      "Ġreputation": 8915,
      "ĠCancer": 8916,
      "adelphia": 8917,
      "Ġpump": 8918,
      "ĠCub": 8919,
      "ĠPict": 8920,
      "Ġwra": 8921,
      "Ġnations": 8922,
      "Ġattached": 8923,
      "ĠThings": 8924,
      "Ġdrawing": 8925,
      "Ġaside": 8926,
      "Ġconsumption": 8927,
      "pson": 8928,
      "Ġsending": 8929,
      "Big": 8930,
      "otten": 8931,
      "ĠAdditionally": 8932,
      "Ġgrass": 8933,
      "Ġsomewhere": 8934,
      "ĠEN": 8935,
      "icity": 8936,
      "etts": 8937,
      "GA": 8938,
      "Ġsuddenly": 8939,
      "ĠCS": 8940,
      "Ġdistributed": 8941,
      "ĠMeanwhile": 8942,
      "Ġreact": 8943,
      "ushing": 8944,
      "iser": 8945,
      "endo": 8946,
      "anth": 8947,
      "ĠSelect": 8948,
      "Ġvariables": 8949,
      "ĠCR": 8950,
      "letter": 8951,
      "Ġsurve": 8952,
      "ĠInterest": 8953,
      "ĠNations": 8954,
      "Ġestimate": 8955,
      "ĠLearning": 8956,
      "Ġflag": 8957,
      "Ġaims": 8958,
      "Ġcriteria": 8959,
      "Ġpersonally": 8960,
      "Ġraw": 8961,
      "ĠOs": 8962,
      "Ġcarrying": 8963,
      "à¥": 8964,
      "ĠTrade": 8965,
      "Ġcausing": 8966,
      "Ġlikes": 8967,
      "har": 8968,
      "Ġcovering": 8969,
      "abil": 8970,
      "Ġconfiguration": 8971,
      "Ġinspiration": 8972,
      "ĠSche": 8973,
      "acher": 8974,
      "Ġdoctors": 8975,
      "acked": 8976,
      "iology": 8977,
      "Ġconcrete": 8978,
      "ĠUlt": 8979,
      "Ġsuffered": 8980,
      "otted": 8981,
      "ĠTurkey": 8982,
      "raction": 8983,
      "ĠConc": 8984,
      "Ġrecommendations": 8985,
      "Gener": 8986,
      "ĠOxford": 8987,
      "ĠHeart": 8988,
      "ĠBush": 8989,
      "ĠEffect": 8990,
      "ĠFurthermore": 8991,
      "ĠArizona": 8992,
      "Ġbenefic": 8993,
      "allel": 8994,
      "aska": 8995,
      "ĠCho": 8996,
      "bered": 8997,
      "Ġreducing": 8998,
      "Ġexposed": 8999,
      "subsection": 9000,
      "Ġ]": 9001,
      "rat": 9002,
      "ĠOpt": 9003,
      "site": 9004,
      "Ġcookies": 9005,
      "Ġentitled": 9006,
      "build": 9007,
      "So": 9008,
      "ÐµÐº": 9009,
      "ĠBBC": 9010,
      "Ġ1992": 9011,
      "ĠScient": 9012,
      "Ġfolks": 9013,
      "ami": 9014,
      "sex": 9015,
      "Ġkilling": 9016,
      "Ġdiff": 9017,
      "Ġmyst": 9018,
      "aux": 9019,
      "ĠAirport": 9020,
      "iders": 9021,
      "ML": 9022,
      "apse": 9023,
      "ĠCrit": 9024,
      "Ġstations": 9025,
      "Ġbench": 9026,
      "iley": 9027,
      "Ġdomin": 9028,
      "Ġstead": 9029,
      "Ġhoping": 9030,
      "oven": 9031,
      "valid": 9032,
      "...]": 9033,
      "Ġunus": 9034,
      "Ġhardware": 9035,
      "Ġapplicable": 9036,
      "Ġrose": 9037,
      "Ġpleased": 9038,
      "ĠAli": 9039,
      "ĠUkraine": 9040,
      "ĠWales": 9041,
      "Ġ(!": 9042,
      "UE": 9043,
      "first": 9044,
      "Ġele": 9045,
      "ĠDream": 9046,
      "ĠÐł": 9047,
      "Ġmeal": 9048,
      "Ġfeelings": 9049,
      "Ġcrash": 9050,
      "stal": 9051,
      "Ġclothes": 9052,
      "Ġweren": 9053,
      "ĠSant": 9054,
      "click": 9055,
      "nie": 9056,
      "Ġfewer": 9057,
      "Ġperformances": 9058,
      "ilty": 9059,
      "ĠVery": 9060,
      "Ġproducer": 9061,
      "ika": 9062,
      "ĠTenn": 9063,
      "Ġdescribes": 9064,
      "ĠMarketing": 9065,
      "Ġbreaking": 9066,
      "aciÃ³n": 9067,
      "ulpt": 9068,
      "ĠSafety": 9069,
      "Ġpitch": 9070,
      "Ġinsight": 9071,
      "ĠCredit": 9072,
      "Ġrequirement": 9073,
      "Ġeligible": 9074,
      "Ġdeclared": 9075,
      "Ġdeploy": 9076,
      "sche": 9077,
      "achus": 9078,
      "has": 9079,
      "ĠTransport": 9080,
      "Ġjun": 9081,
      "ĠPersonal": 9082,
      "ĠAffairs": 9083,
      "whel": 9084,
      "ĠBased": 9085,
      "Ġproducing": 9086,
      "Ġvector": 9087,
      "ensional": 9088,
      "ĠHay": 9089,
      "requ": 9090,
      "Ġlessons": 9091,
      "wind": 9092,
      "Ġacknowled": 9093,
      "hist": 9094,
      "include": 9095,
      "Ġ120": 9096,
      "Result": 9097,
      "Ġwrites": 9098,
      "Ñĳ": 9099,
      "aa": 9100,
      "axy": 9101,
      "dep": 9102,
      "iger": 9103,
      "oret": 9104,
      "ĠPrice": 9105,
      "?'": 9106,
      "thm": 9107,
      "ĠMiami": 9108,
      "Ġmatches": 9109,
      "ĠStation": 9110,
      "Ġprogramming": 9111,
      "Ġbread": 9112,
      "ERE": 9113,
      "((": 9114,
      "Ġthorough": 9115,
      "ĠPatrick": 9116,
      "Ġevil": 9117,
      "Ġvice": 9118,
      "ĠProcess": 9119,
      "Ġattempts": 9120,
      "ĠMarc": 9121,
      "isted": 9122,
      "ieties": 9123,
      "Ġproven": 9124,
      "Ġobst": 9125,
      "Ġdeeply": 9126,
      "Ġtrib": 9127,
      "Ġfounder": 9128,
      "ydney": 9129,
      "ĠRecent": 9130,
      "Ġacquired": 9131,
      "pton": 9132,
      "ĠBeh": 9133,
      "UD": 9134,
      "etary": 9135,
      "Ġamounts": 9136,
      "ĠPA": 9137,
      "Ġelectricity": 9138,
      "Ġextend": 9139,
      "Ġoccurs": 9140,
      "urse": 9141,
      "Ġ1993": 9142,
      "ĠLady": 9143,
      "Ġlawyer": 9144,
      "Ġconcerning": 9145,
      "Ġbreakfast": 9146,
      "ĠBit": 9147,
      "Ġinvolves": 9148,
      "Ġbutter": 9149,
      "ailing": 9150,
      "doc": 9151,
      "png": 9152,
      "nesota": 9153,
      "SON": 9154,
      "Ġsupplies": 9155,
      "Ġdur": 9156,
      "Ġluxury": 9157,
      "Ġum": 9158,
      "Ġchat": 9159,
      "ĠAnalysis": 9160,
      "ĠGrow": 9161,
      "Ġintegration": 9162,
      "ĠÐĳ": 9163,
      "Net": 9164,
      "ĠWebs": 9165,
      "Ġevaluation": 9166,
      "makers": 9167,
      "aga": 9168,
      "Ġcourts": 9169,
      "Ġdismiss": 9170,
      "Ã¡s": 9171,
      "anchester": 9172,
      "Ġtransaction": 9173,
      "ĠFive": 9174,
      "ĠBud": 9175,
      "Ġconfident": 9176,
      "Ġreplacement": 9177,
      "ĠIslamic": 9178,
      "ĠPRO": 9179,
      "apache": 9180,
      "PP": 9181,
      "Ġanyway": 9182,
      "Ġ41": 9183,
      "Ġconstra": 9184,
      "Ġ43": 9185,
      "onna": 9186,
      "Ġdust": 9187,
      "ĠNone": 9188,
      "Ġphilosophy": 9189,
      "itis": 9190,
      "ĠResources": 9191,
      "--------------------------------": 9192,
      "Ġshipping": 9193,
      "ĠSky": 9194,
      "^*": 9195,
      "Ġprovision": 9196,
      "Ġcolleagues": 9197,
      "web": 9198,
      "umps": 9199,
      "Ġcapabilities": 9200,
      "Ġfro": 9201,
      "ishop": 9202,
      "ĠClinton": 9203,
      "Ġfifth": 9204,
      "ĠKit": 9205,
      "ĠBerlin": 9206,
      "Ġinstitution": 9207,
      "Ġble": 9208,
      "Ġconsole": 9209,
      "Ġformula": 9210,
      "Ġmoral": 9211,
      "ĠTraining": 9212,
      "400": 9213,
      "^{(": 9214,
      "ĠÐĶ": 9215,
      "Ġvess": 9216,
      "Ġly": 9217,
      "Ġprinciple": 9218,
      "ĠÐ»": 9219,
      "Ġocean": 9220,
      "chers": 9221,
      "Ġgenu": 9222,
      "ĠNumber": 9223,
      "Dis": 9224,
      "Ġresidential": 9225,
      "Sp": 9226,
      "inar": 9227,
      "only": 9228,
      "ĠEnvironmental": 9229,
      "Ġsecondary": 9230,
      "CR": 9231,
      "ĠTrue": 9232,
      "Ġproved": 9233,
      "Ġtitles": 9234,
      "Ġwarning": 9235,
      "Ġcrypt": 9236,
      "Ġconclusion": 9237,
      "Sub": 9238,
      "Ġbehaviour": 9239,
      "Ġbedroom": 9240,
      "Ð¾Ð·": 9241,
      "Ġmembership": 9242,
      "American": 9243,
      "model": 9244,
      "Ġregime": 9245,
      "olly": 9246,
      "Ġhoriz": 9247,
      "oln": 9248,
      "erd": 9249,
      "Ġwins": 9250,
      "achusetts": 9251,
      "orable": 9252,
      "Ġjew": 9253,
      "Ġaccordance": 9254,
      "eman": 9255,
      "uties": 9256,
      "after": 9257,
      "Ġbreath": 9258,
      "ASS": 9259,
      "erk": 9260,
      "ĠSO": 9261,
      "Ġprohib": 9262,
      "ĠLewis": 9263,
      "Ġwestern": 9264,
      "Äĥ": 9265,
      "Ġlanguages": 9266,
      "ĠRome": 9267,
      "Ġfoods": 9268,
      "ĠJay": 9269,
      "Ġentity": 9270,
      "Ġabsolute": 9271,
      "Ġpul": 9272,
      "Ġtrick": 9273,
      "Ġnorthern": 9274,
      "ĠNavy": 9275,
      "Ġsharp": 9276,
      "Ġenemy": 9277,
      "Ġrefe": 9278,
      "ÐµÑģÑĤ": 9279,
      "ificial": 9280,
      "pg": 9281,
      "aping": 9282,
      "_.": 9283,
      "Ġstages": 9284,
      "Ref": 9285,
      "Ġinjured": 9286,
      "ensuremath": 9287,
      "Ġqualified": 9288,
      "rition": 9289,
      "ĠWorking": 9290,
      "ĠJason": 9291,
      "FO": 9292,
      "Response": 9293,
      "cul": 9294,
      "owed": 9295,
      "organ": 9296,
      "Ġreserved": 9297,
      "Ġpeak": 9298,
      "Ġstretch": 9299,
      "ĠAnnual": 9300,
      "Ġblocks": 9301,
      "Ġnormally": 9302,
      "Ġimper": 9303,
      "Ġà¤": 9304,
      "ĠPow": 9305,
      "ĠCore": 9306,
      "Ġinhib": 9307,
      "Ġnarrative": 9308,
      "pled": 9309,
      "Ġcommonly": 9310,
      "Ġelectron": 9311,
      "Ġnewspaper": 9312,
      "Ġphr": 9313,
      "ĠBeaut": 9314,
      "\"),": 9315,
      "Ġrepresentative": 9316,
      "Ġminim": 9317,
      "ĠTR": 9318,
      "ĠBes": 9319,
      "Ð°Ð½Ð¸": 9320,
      "Reg": 9321,
      "Ġsubsid": 9322,
      "Ġthin": 9323,
      "dev": 9324,
      "ĠSix": 9325,
      "ĠRand": 9326,
      "Ġrecover": 9327,
      "ĠFootball": 9328,
      "ĠOS": 9329,
      "ishment": 9330,
      "local": 9331,
      "otype": 9332,
      "Ġresid": 9333,
      "Ġrating": 9334,
      "Ġrecipe": 9335,
      "Ġvoc": 9336,
      "ockey": 9337,
      "ĠPhiladelphia": 9338,
      "Ġcontinuous": 9339,
      "source": 9340,
      "asant": 9341,
      "ĠFA": 9342,
      "ĠStone": 9343,
      "itarian": 9344,
      "ĠBrother": 9345,
      "ĠSilver": 9346,
      "Ġhole": 9347,
      "irk": 9348,
      "ĠDave": 9349,
      "olid": 9350,
      "Ġarguments": 9351,
      "Ġodd": 9352,
      "Ġoccas": 9353,
      "Ġextends": 9354,
      "holder": 9355,
      "Ġcooking": 9356,
      "Ġalgorithm": 9357,
      "rated": 9358,
      "amps": 9359,
      "Ġbatt": 9360,
      "rection": 9361,
      "Ġans": 9362,
      "Ð°Ð²": 9363,
      "ĠDiego": 9364,
      "cap": 9365,
      "cut": 9366,
      "ĠIndustry": 9367,
      "Ġ__": 9368,
      "ĠCooper": 9369,
      "ĠBiden": 9370,
      "Ġtrou": 9371,
      "ados": 9372,
      "Lay": 9373,
      "Ġconscious": 9374,
      "ĠSpr": 9375,
      "Ġeveryday": 9376,
      "ĠAdvis": 9377,
      "oute": 9378,
      "Ġmarks": 9379,
      "').": 9380,
      "~~": 9381,
      "ĠComments": 9382,
      "ĠSimon": 9383,
      "imp": 9384,
      "ĠGallery": 9385,
[...]
